node {
  name: "input_1"
  op: "Placeholder"
  attr {
    key: "dtype"
    value {
      type: DT_FLOAT
    }
  }
  attr {
    key: "shape"
    value {
      shape {
        dim {
          size: -1
        }
        dim {
          size: 64
        }
        dim {
          size: 64
        }
        dim {
          size: 1
        }
      }
    }
  }
}
node {
  name: "conv2d_1/kernel"
  op: "Const"
  attr {
    key: "dtype"
    value {
      type: DT_FLOAT
    }
  }
  attr {
    key: "value"
    value {
      tensor {
        dtype: DT_FLOAT
        tensor_shape {
          dim {
            size: 3
          }
          dim {
            size: 3
          }
          dim {
            size: 1
          }
          dim {
            size: 8
          }
        }
        tensor_content: "\n\373T\206\021\307\017=\217R\203=\3519{\273\t\255.=D:c\007X\230\003\274\274\325\374\275X)\215\207\347#\334<b\323b=a\032\320\274\346\203\216=J\247\034\007\342\341\227;\253\222\005\276\361\237s\207\375|\211<\303\221\010\274\031=\267\274\245#\263=W\0063\007\315\236\014\273\235\232\202\275\311Tk\207@\257\313\274\207\017\352=\350\321\014=\244$q\275\007\357\234\007\345\257\016<\340\341\375\275X\345\355\006\017\376h\275h\213\367<\2136\351\275\331\264\264\273ZX\301\006x\270$=d}\003<\246\364\316\206L\000H\275\013\362\227\275\030\333\306\275\366\363\270=\272\202W\006\347J\014=\264\366\200=|\256c\205\260J\002\275\305\265\236<\363\225N>\313\246,\276bd\034\207R\224\245<m/\234<\201#2\207\204\203\202\275\221\226\240\275\257\234\351=\364-\337\275\341\227G\007\247\344==k\362O>\014\222p\207\025r6\275\"a\363\275N\275N\275l\2064=z\2401\007\007V\023=]2#>"
      }
    }
  }
}
node {
  name: "conv2d_1/convolution/ReadVariableOp"
  op: "Identity"
  input: "conv2d_1/kernel"
  attr {
    key: "T"
    value {
      type: DT_FLOAT
    }
  }
}
node {
  name: "conv2d_1/convolution"
  op: "Conv2D"
  input: "input_1"
  input: "conv2d_1/convolution/ReadVariableOp"
  attr {
    key: "T"
    value {
      type: DT_FLOAT
    }
  }
  attr {
    key: "data_format"
    value {
      s: "NHWC"
    }
  }
  attr {
    key: "dilations"
    value {
      list {
        i: 1
        i: 1
        i: 1
        i: 1
      }
    }
  }
  attr {
    key: "explicit_paddings"
    value {
      list {
      }
    }
  }
  attr {
    key: "padding"
    value {
      s: "VALID"
    }
  }
  attr {
    key: "strides"
    value {
      list {
        i: 1
        i: 1
        i: 1
        i: 1
      }
    }
  }
  attr {
    key: "use_cudnn_on_gpu"
    value {
      b: true
    }
  }
}
node {
  name: "batch_normalization_1/gamma"
  op: "Const"
  attr {
    key: "dtype"
    value {
      type: DT_FLOAT
    }
  }
  attr {
    key: "value"
    value {
      tensor {
        dtype: DT_FLOAT
        tensor_shape {
          dim {
            size: 8
          }
        }
        tensor_content: "G\022$?\031\265}?\302X!?\376h\204?z\236@?\365\353\225>\373\301J?B7x?"
      }
    }
  }
}
node {
  name: "batch_normalization_1/beta"
  op: "Const"
  attr {
    key: "dtype"
    value {
      type: DT_FLOAT
    }
  }
  attr {
    key: "value"
    value {
      tensor {
        dtype: DT_FLOAT
        tensor_shape {
          dim {
            size: 8
          }
        }
        tensor_content: "\374WE\277\033c\026\276+\273O>39\232?\271\372\363>\017\034\224\276\207\035\207\276Q\342\217?"
      }
    }
  }
}
node {
  name: "batch_normalization_1/moving_mean"
  op: "Const"
  attr {
    key: "dtype"
    value {
      type: DT_FLOAT
    }
  }
  attr {
    key: "value"
    value {
      tensor {
        dtype: DT_FLOAT
        tensor_shape {
          dim {
            size: 8
          }
        }
        tensor_content: "\357\302\371\2059\360\231\273\357%)9\253\246\007:\231(d9)\031\376\005\3773\225;\014\017\3626"
      }
    }
  }
}
node {
  name: "batch_normalization_1/moving_variance"
  op: "Const"
  attr {
    key: "dtype"
    value {
      type: DT_FLOAT
    }
  }
  attr {
    key: "value"
    value {
      tensor {
        dtype: DT_FLOAT
        tensor_shape {
          dim {
            size: 8
          }
        }
        tensor_content: "Wt\306\003\023\000\022<9\032\r;\223\'*;\326\234F;\005+\307\003i\353\000<1\251\256;"
      }
    }
  }
}
node {
  name: "batch_normalization_1/ReadVariableOp_6"
  op: "Identity"
  input: "batch_normalization_1/gamma"
  attr {
    key: "T"
    value {
      type: DT_FLOAT
    }
  }
}
node {
  name: "batch_normalization_1/ReadVariableOp_7"
  op: "Identity"
  input: "batch_normalization_1/beta"
  attr {
    key: "T"
    value {
      type: DT_FLOAT
    }
  }
}
node {
  name: "batch_normalization_1/FusedBatchNorm_1/ReadVariableOp"
  op: "Identity"
  input: "batch_normalization_1/moving_mean"
  attr {
    key: "T"
    value {
      type: DT_FLOAT
    }
  }
}
node {
  name: "batch_normalization_1/FusedBatchNorm_1/ReadVariableOp_1"
  op: "Identity"
  input: "batch_normalization_1/moving_variance"
  attr {
    key: "T"
    value {
      type: DT_FLOAT
    }
  }
}
node {
  name: "batch_normalization_1/FusedBatchNorm_1"
  op: "FusedBatchNorm"
  input: "conv2d_1/convolution"
  input: "batch_normalization_1/ReadVariableOp_6"
  input: "batch_normalization_1/ReadVariableOp_7"
  input: "batch_normalization_1/FusedBatchNorm_1/ReadVariableOp"
  input: "batch_normalization_1/FusedBatchNorm_1/ReadVariableOp_1"
  attr {
    key: "T"
    value {
      type: DT_FLOAT
    }
  }
  attr {
    key: "data_format"
    value {
      s: "NHWC"
    }
  }
  attr {
    key: "epsilon"
    value {
      f: 0.0010000000474974513
    }
  }
  attr {
    key: "is_training"
    value {
      b: false
    }
  }
}
node {
  name: "activation_1/Relu"
  op: "Relu"
  input: "batch_normalization_1/FusedBatchNorm_1"
  attr {
    key: "T"
    value {
      type: DT_FLOAT
    }
  }
}
node {
  name: "conv2d_2/kernel"
  op: "Const"
  attr {
    key: "dtype"
    value {
      type: DT_FLOAT
    }
  }
  attr {
    key: "value"
    value {
      tensor {
        dtype: DT_FLOAT
        tensor_shape {
          dim {
            size: 3
          }
          dim {
            size: 3
          }
          dim {
            size: 8
          }
          dim {
            size: 8
          }
        }
        tensor_content: "H\265L\007\272\320k\207\233\010\021\210RG\340\207(\'8\010X\332\222\204\340q\202\207\211\305.\210\022\261s<.\2076\274f\222d=\313\246\020<P\340\t<\216s,<t\214\3049gU]<\002\301\007:\372\214\022=\332Z\267;G\002h\274}\016\350\274\001M\003=w<K\274~$\261\274\311\264&\274m:\003\274|\231\223\273w\373U<a\3145\274\036\362\325\274\257w&\275#\3216\275\205\352\365\274\235\225\271\273 \273\270\274\363\271\031\275\014\373\323<\"\300#=\\\236\347<\272\033\225<}\230\275\007I\356\332\207Q\024U\007a\226\234\007\370\374\350\006]\\\207\007p\264\t\210\351q\337\007\265\021\025;Cr\305<\023\331p\274\026W\234;&\352\303\2730\227U\272\235\360\360<Hox\273g\256\t\275\034:\362\274\207\240d\273%K\214<Skn\273\212jj<\3411L<\360\345\273<s\331_\2068\217u\207\242\272\014\210\032\273;\210ZX\036\010DE\246\206\262\217\027\205\027\301\016\210\260s\217<\355\214!\274p`k=*V[<4%\252\273\271\014q<0\367\022;\276e\233<\357\304j\274\323\2745=\"L\017<F\274f<\365-\010\275\276\324\355<\336e\003\275^{_\274\211\337v\275A7o<AW\3359:-\224;3\257\257<\"h\352\274\256\323\267\274\014j#<gQ\241<\357J\266\273\330\323D\274\260b\375\274\0041F\2738{\205=\325:\203<\211\'\241;\360\005\302\007\215 \341\207\013\235\250\007F\236\231\007%\001\234\006\243\035\242\007\336u\001\210\316\020\364\007\306\306\n<\001+\223<\373#\205\274\326\306k;H\r\302\273\302\326\003;\000\006^=e\247&\273\351\313_\275B\336=\275\251L\202\273\321\034\325\272\367g\214<\312\377\213:\333[\240<7\360\260<\272\277\336\006k\340o\207zg$\210\340\372<\007g\300\n\010\3161\267\006\277\215\020\207]\223\377\207\336\243w<\025\304\007\274\020\254}= @\255;\343\3761\274\023\247V<\376C6\274\243\006i<\000\321\230\274\205\270\005=)V\211\273\276\021\007;\360 \343\274\256Bu<\221\361\354\274\323\032\031\275\206\352.\275H\022\027<G\256\270\274\0271Y\273\370r%<\302F8\275\304U\261<]\375\275<Y\373\273<\306\375\211<\370\304.;#r\023\274\330}\004=\n\262k=\331\340\310;kr\356;\206\267\364\007\\\206\n\210\020\020\306\207)\220\r\010\220\375B\010\367\312\263\007\350\027\000\210\354\377\345\007\374\016C<\202ah<\370\305\201\274O\206\351\273\307\201\226\273\272O3<\241\366q=4\r \272\262v\320\274`X5\275\361(\223\274M\214\353;\354\267,\275\304VX\274\242m\201\272<\267\022=L\024\266\207\237\017\207\207\260=\344\207\367\330\367\207\3675\336\206\304?\334\206\'\374\236\006\232/\022\010\271\027\317<\364\027\212\274\301\222j=e\330\211<6\007\265\2733\353\016=\264Hg<f\267\025<~v\226\274\275e1=3\032\353<p\031\205<F\377J\275\256|\031=\365\300V\275j\240(\275L\245f=\022L\021\274=\022\204<\322\235\202=[\332\362\274P\204\236;\343\225\033\275\257\244\263\275\337y$\275\344\2467\274R$\257\2740=>\275V?,;\201j\370<\014\363\027=n\306\031=\203\007\264\007(\376\265\207\003X\216\006\264\312\242\007\3316q\007\315\232{\206\232\310\026\210\327\241\317\007\200\277\226\273\312\253\207<\342H\210\274\010\327\262\267\005\247e\272\337JW:c\303\211=\2456\315:\214nE\275\336\211[\275\340C\261\272\343Q2\275\305\220\375;6\373/<\200\363\216=\3729(=\344\007B\207\341\361\206\207j\343\363\207RH \210\201ds\007\207\254E\207\226\322]\006e>X\206\002P\316<:o\030\274\336\316j=\300\236\021<@\365\305\274\371j\'=]\356O;\264\2515<\010\262\022\275\354\207G=$,\006=\351\315\010\274Q\337\325\274\232c\347<\326\276<\275j\224\306\274\0214\375\272\216\001_\273\241\353\357\273\216\315\211\275IlE\275\362\233\330\274h:H=~3\304\273\317\262\253\272\203\312\251<\341\010R<Q%\301<\021\t\306\274qW\210=L\245j\2744h\222\273\215\255\305\007}e\314\207\\\031\266\007\223\341\205\007`\245b\206\241*C\007\312v\031\210\205;\346\007\336\t\003\273\017\351N<>\203g\274NIV\273#b\203\273]\341J;\305\334\237=V+A<\311\264\020\275\331RT\275\243i\210\274\213\277I<y7}<\274\220\215;\242\036{=<\342h=5\204\267\007zp\222\207\300\272\367\207X\006\371\007mq,\010H\033\324\205=W\037\007\340%\013\007\r\376\255<B\333\357\2734pi=\317G\021\2749A\317\274\020=\353<\240i\020\274\375\370\n<\217\367\326\274\304K\t<\\\350\375\272\257\016j\274\201\321\025\274\210\026><\216\334d\2736I\010\275$y\003\275tlS\274\267\377\363\274Oz\204\274a\205\200\274\371\237&\275\353\"\212=\222\330\023=ai\343<#^R=\370\202\007=quV\273K\322\006\275\340R\206=\320\035\347\274\177\271`\274M\3129\007l\372\362\207\273\223\265\207\224\014\324\207\237\271\024\010\227\021\240\007\3503\"\210\331m\362\007\030\242\237:lwZ<j\247 \274\275\226\345\273\350P\265\273O\306E<-}x=\231\021u<\227\274\005<\221h\n\275W\025L\273\337\345\206=\017\246\314\274\231S\006;\214<\217\274\257Lb=yi7\010\202\027\233\207\226\351\354\207!5:\21027\002\2100\314\326\206\341u\322\007F\224\370\007S\372\327\273\277cj\2732\275\233=t\212z<\212\000n;\267\356\360<J9\206<q\361\025<\237\' \275\005\354\034=\277^\335<D\316\352<\316\216\265<D\003$:\002\0312<rN^\275l\r\207=?\017\245\274\210-\356<\247\214Z=\247w\306<\372\360Q=:\232}\275\022he\275m\262\032\275S\033\262<\363m1\273+\215\241\274!G\001=\362\203\367;m\\\266=\037\224?=u\375\355\007\222\035\256\207\236Xa\207\333\276\244\007\302AU\007\023pS\2078\0108\204n5\302\007\262\"\035\274\277\3270<\351H\240\274,\250\355\273\357\230\235\274b\364\263\272\221\242m=\326\315\006<\313m5=\246\022\225\275\307*\355\2740\326\221\275nd\222\2752S\005=H\375\024=\326w\017=P\3361\010\252a\240\207\335\301\353\207w\007\010\010\306\370\300\207Vr0\207\376\036$\010X\t\002\010\245Z@\274\214\3444\273Q\314\205=\244C\234\273K\201\330:\272L\005=\320\323,<\010\335\316;\3379\n\275>\275E<\344\375\240<O\220\367\274J\177\314<4\017\244;j[M=\361l\014\275\275\351\214=\354#\262\272\254\026\264\271!\263+\275\306\377\260\275\300\341`\273\237\010k\275)uU\275\241ku\275;\037\022=\004\261\337<\233}>=0\177\225=\205\220\355<\260\'s=8\203\007=@w\346\207y\256\266\207pbc\2078T\201\007\212\035\366\007\224{\034\007\311\270=\207iy\336\007\270>G\274\333\302\026<|\215\214\274\003t>\274\023:\251\274\025\237\2768\366\306w=\242G\321<W\360X=5\315-\275\302\207\037\274\203\342\024=.V\334\275\202T^=*&\345\274\226\023n=\\(!\010\331\006\233\207\2567\372\207}2\347\007\350+\334\206\321\336\331\205\036\202\312\007|E\351\007s\254*\274\262\026\276\273\"%\206=\307\030j\274\224sW:\002\024\313<\247\331\266\270\035\363\210\273\216\270\035\274\366\247y\274x\375\264\271\354\0322;-\217\":\325Y\002;\2551\254=\217\024\n\275\216\032\253<f#w\273\035\237\257\273\201\315\361\274\255\366\321\275O\330\257\274\257\255\353\273{Q\215;65\013\275LE\014=\214,\002=\337\007\244:\2442\221=\310\234\214<\257\277\024=\r\260\306\273\n\201\332\207\r\025\300\207\311\245\243\207_v\331\207\004\3155\010N}\230\007\021\020\261\007u\'\336\007\022\346v\274X\325*<\235\202V\274\214\000,\274\202\317\211\274\277\002\300;\324\333<=\256a\371<\tV\301;y\177\234\274\273\261\365;\331\2528=h\200\247\275\265p;=A|/\275\340\323B="
      }
    }
  }
}
node {
  name: "conv2d_2/convolution/ReadVariableOp"
  op: "Identity"
  input: "conv2d_2/kernel"
  attr {
    key: "T"
    value {
      type: DT_FLOAT
    }
  }
}
node {
  name: "conv2d_2/convolution"
  op: "Conv2D"
  input: "activation_1/Relu"
  input: "conv2d_2/convolution/ReadVariableOp"
  attr {
    key: "T"
    value {
      type: DT_FLOAT
    }
  }
  attr {
    key: "data_format"
    value {
      s: "NHWC"
    }
  }
  attr {
    key: "dilations"
    value {
      list {
        i: 1
        i: 1
        i: 1
        i: 1
      }
    }
  }
  attr {
    key: "explicit_paddings"
    value {
      list {
      }
    }
  }
  attr {
    key: "padding"
    value {
      s: "VALID"
    }
  }
  attr {
    key: "strides"
    value {
      list {
        i: 1
        i: 1
        i: 1
        i: 1
      }
    }
  }
  attr {
    key: "use_cudnn_on_gpu"
    value {
      b: true
    }
  }
}
node {
  name: "batch_normalization_2/gamma"
  op: "Const"
  attr {
    key: "dtype"
    value {
      type: DT_FLOAT
    }
  }
  attr {
    key: "value"
    value {
      tensor {
        dtype: DT_FLOAT
        tensor_shape {
          dim {
            size: 8
          }
        }
        tensor_content: "6\021@?\016aF?\241\324\220?}\347\005?\260\352N?V\242C?\334\371b?KdF?"
      }
    }
  }
}
node {
  name: "batch_normalization_2/beta"
  op: "Const"
  attr {
    key: "dtype"
    value {
      type: DT_FLOAT
    }
  }
  attr {
    key: "value"
    value {
      tensor {
        dtype: DT_FLOAT
        tensor_shape {
          dim {
            size: 8
          }
        }
        tensor_content: "\r\315 ?\263\3573?y\367+?Z\232\220?:\300\220?kU\374\276\340\032!?*\247F?"
      }
    }
  }
}
node {
  name: "batch_normalization_2/moving_mean"
  op: "Const"
  attr {
    key: "dtype"
    value {
      type: DT_FLOAT
    }
  }
  attr {
    key: "value"
    value {
      tensor {
        dtype: DT_FLOAT
        tensor_shape {
          dim {
            size: 8
          }
        }
        tensor_content: "\300\346\000\276\252K\264\276\276\243\303=m\201v<p0\036\2771F\261>g\306z>\230h\201>"
      }
    }
  }
}
node {
  name: "batch_normalization_2/moving_variance"
  op: "Const"
  attr {
    key: "dtype"
    value {
      type: DT_FLOAT
    }
  }
  attr {
    key: "value"
    value {
      tensor {
        dtype: DT_FLOAT
        tensor_shape {
          dim {
            size: 8
          }
        }
        tensor_content: "o\332\212=F\022\320=.y\356=\327&\303<\010\252\353=P\370\277=d\225\310=\020b\n>"
      }
    }
  }
}
node {
  name: "batch_normalization_2/ReadVariableOp_6"
  op: "Identity"
  input: "batch_normalization_2/gamma"
  attr {
    key: "T"
    value {
      type: DT_FLOAT
    }
  }
}
node {
  name: "batch_normalization_2/ReadVariableOp_7"
  op: "Identity"
  input: "batch_normalization_2/beta"
  attr {
    key: "T"
    value {
      type: DT_FLOAT
    }
  }
}
node {
  name: "batch_normalization_2/FusedBatchNorm_1/ReadVariableOp"
  op: "Identity"
  input: "batch_normalization_2/moving_mean"
  attr {
    key: "T"
    value {
      type: DT_FLOAT
    }
  }
}
node {
  name: "batch_normalization_2/FusedBatchNorm_1/ReadVariableOp_1"
  op: "Identity"
  input: "batch_normalization_2/moving_variance"
  attr {
    key: "T"
    value {
      type: DT_FLOAT
    }
  }
}
node {
  name: "batch_normalization_2/FusedBatchNorm_1"
  op: "FusedBatchNorm"
  input: "conv2d_2/convolution"
  input: "batch_normalization_2/ReadVariableOp_6"
  input: "batch_normalization_2/ReadVariableOp_7"
  input: "batch_normalization_2/FusedBatchNorm_1/ReadVariableOp"
  input: "batch_normalization_2/FusedBatchNorm_1/ReadVariableOp_1"
  attr {
    key: "T"
    value {
      type: DT_FLOAT
    }
  }
  attr {
    key: "data_format"
    value {
      s: "NHWC"
    }
  }
  attr {
    key: "epsilon"
    value {
      f: 0.0010000000474974513
    }
  }
  attr {
    key: "is_training"
    value {
      b: false
    }
  }
}
node {
  name: "activation_2/Relu"
  op: "Relu"
  input: "batch_normalization_2/FusedBatchNorm_1"
  attr {
    key: "T"
    value {
      type: DT_FLOAT
    }
  }
}
node {
  name: "separable_conv2d_1/depthwise_kernel"
  op: "Const"
  attr {
    key: "dtype"
    value {
      type: DT_FLOAT
    }
  }
  attr {
    key: "value"
    value {
      tensor {
        dtype: DT_FLOAT
        tensor_shape {
          dim {
            size: 3
          }
          dim {
            size: 3
          }
          dim {
            size: 8
          }
          dim {
            size: 1
          }
        }
        tensor_content: "\007o\362\276\277\306\251>\333E|=9\356r=)\272\316\276\337ax\276$i\303>\016b\021\277pD\363\276\362\'\215>\310l\251>\033\004\373\275\222\326\200\276g\224\275\2760\343\020?\3726v=\343I\026<\230\227q=D\357\002\277x\345\321=\200\310|\276C|\007\275\253\316\270=\261S\326>\360D\034?\306\236P>\277h\t?S\220\357>\34681?\273\213\220\276 r\236;2\217\224\276\344\203\303>\362\276\252\276\2002\232\274\315\033\201\277,\320$?m$\247=;\247\250\276\261\352\256\276\254\363\252\274Wg\255\276\273\003\243\276\014\010\341>-<}\276\017\313 >\375\2415>\270D\336>\352\252\203\273\224Q\306\276\360\000\243\275U4b=\301\350\236\276`\375@\277\307{\364\276\005{\020>%\213(>:tN\276h++>`E\313\276q\300\217=\2466\372\275\345\201\371\276#G\207\275L8\270\276\354z*>\025\211\357\275\317E\253>\022R >Q0\276>\223$\202=@L\260="
      }
    }
  }
}
node {
  name: "separable_conv2d_1/pointwise_kernel"
  op: "Const"
  attr {
    key: "dtype"
    value {
      type: DT_FLOAT
    }
  }
  attr {
    key: "value"
    value {
      tensor {
        dtype: DT_FLOAT
        tensor_shape {
          dim {
            size: 1
          }
          dim {
            size: 1
          }
          dim {
            size: 8
          }
          dim {
            size: 16
          }
        }
        tensor_content: "\3721\264>\205&\014\277\r\177\367>\030\356\252\274\005\022\035\276\275\365\322\275O\006\313=\231\2553\275^\203+?\"\177\234>M\026\315\276FN\222?\230\030\213=\031\037\000>\300l\337\276\211E\343>`\246\204>\315\206y\276eT\002>\0079\014?\300N\271\274a\200\304=,>\004\276s\372&\276\317\023\026=\206jF>\241=\363\275\226L]>\363\"E=b\007\243\276<\221V>\n?p?\350\211\007=\212\302\375=\250\276\236?\310\340\326>]\364f>\241\025\376=*\356\n\276\375\227\306\275\321I\364>\331Qb>LA\376\276\300\177\213>\254#\262=\r\357\205\27645C>\312b\345\273\224>\025?\034\217\002\276a\352\020\277\006\334\304\2756\363\204>\345\354\206?e\221\035?\220\204F?\'\226\277>s\256\314\276\234a(>D\2276>\315\203\204\275)\341\243>\346/u?PVq\276\'\200t< uU?\212\247\254>2\014L\276\310\227\361>*\004C\276\336\355\200\276h\2270\273m\230P>~O\353=oO<\277\210\2026\277?\256\207\277_\031\346=\223\224.\277\277\230M\277\377\004\002?\035\334u>\240\013\026\276\333\245\000?\311|\232>J\210]>\210@3?\334+3>\r\204\357\276\361\\\277>{\001\311>\3365\023\276\302\336\014?&jL?\265\203R\274\233\246\314\275Er>?\312\226\014>.9\352\275\353\310;\277W\0073\277AJ>\276$r#\277,I5?e%\270>\037#\311=\253N\342\2763\232\'\275v\002\214=\377\247\017?\321qv\276\253\365B;l?\274=D\257Y=\363E\266\276\3052\025?A\367\002\277\261r\372\276\0354y\276n\013\371=-S\322\275\347\316\231?&|e=~yA>\005C\264>\322\3570\276\245Sd\276\r\347\277="
      }
    }
  }
}
node {
  name: "separable_conv2d_1/separable_conv2d/ReadVariableOp"
  op: "Identity"
  input: "separable_conv2d_1/depthwise_kernel"
  attr {
    key: "T"
    value {
      type: DT_FLOAT
    }
  }
}
node {
  name: "separable_conv2d_1/separable_conv2d/ReadVariableOp_1"
  op: "Identity"
  input: "separable_conv2d_1/pointwise_kernel"
  attr {
    key: "T"
    value {
      type: DT_FLOAT
    }
  }
}
node {
  name: "separable_conv2d_1/separable_conv2d/depthwise"
  op: "DepthwiseConv2dNative"
  input: "activation_2/Relu"
  input: "separable_conv2d_1/separable_conv2d/ReadVariableOp"
  attr {
    key: "T"
    value {
      type: DT_FLOAT
    }
  }
  attr {
    key: "data_format"
    value {
      s: "NHWC"
    }
  }
  attr {
    key: "dilations"
    value {
      list {
        i: 1
        i: 1
        i: 1
        i: 1
      }
    }
  }
  attr {
    key: "padding"
    value {
      s: "SAME"
    }
  }
  attr {
    key: "strides"
    value {
      list {
        i: 1
        i: 1
        i: 1
        i: 1
      }
    }
  }
}
node {
  name: "separable_conv2d_1/separable_conv2d"
  op: "Conv2D"
  input: "separable_conv2d_1/separable_conv2d/depthwise"
  input: "separable_conv2d_1/separable_conv2d/ReadVariableOp_1"
  attr {
    key: "T"
    value {
      type: DT_FLOAT
    }
  }
  attr {
    key: "data_format"
    value {
      s: "NHWC"
    }
  }
  attr {
    key: "dilations"
    value {
      list {
        i: 1
        i: 1
        i: 1
        i: 1
      }
    }
  }
  attr {
    key: "explicit_paddings"
    value {
      list {
      }
    }
  }
  attr {
    key: "padding"
    value {
      s: "VALID"
    }
  }
  attr {
    key: "strides"
    value {
      list {
        i: 1
        i: 1
        i: 1
        i: 1
      }
    }
  }
  attr {
    key: "use_cudnn_on_gpu"
    value {
      b: true
    }
  }
}
node {
  name: "batch_normalization_4/gamma"
  op: "Const"
  attr {
    key: "dtype"
    value {
      type: DT_FLOAT
    }
  }
  attr {
    key: "value"
    value {
      tensor {
        dtype: DT_FLOAT
        tensor_shape {
          dim {
            size: 16
          }
        }
        tensor_content: "\230\377[?\206\376\235?{\017s?~#\212?\214_\220?Y\257\226?\016/\226?}\031K?\024\204y?\304\221\243?\334+\225?\360\224\200?6\002o?\310r\220?\353\316V?\205\233\204?"
      }
    }
  }
}
node {
  name: "batch_normalization_4/beta"
  op: "Const"
  attr {
    key: "dtype"
    value {
      type: DT_FLOAT
    }
  }
  attr {
    key: "value"
    value {
      tensor {
        dtype: DT_FLOAT
        tensor_shape {
          dim {
            size: 16
          }
        }
        tensor_content: "\323\020\304>\275\260\375<\"\316q=\260\221\004?\357\315+?\223^\345\275K&\313=U[\332>\214u\212\275\232\263\t=3^\216\275\363\t\303<\336PP\275\236\'f>\316\311;?q\022^\276"
      }
    }
  }
}
node {
  name: "batch_normalization_4/moving_mean"
  op: "Const"
  attr {
    key: "dtype"
    value {
      type: DT_FLOAT
    }
  }
  attr {
    key: "value"
    value {
      tensor {
        dtype: DT_FLOAT
        tensor_shape {
          dim {
            size: 16
          }
        }
        tensor_content: "\000\244w\276\2500O>c\3120>D\333e\276A\300\265=\025\362\002\276\207/8\276\320\252\331\275\364\322\265<;l5\276\207\337\"\276\027f\207\276\253\000\224\276\375\265\325\275\026\204(\276O5\234\276"
      }
    }
  }
}
node {
  name: "batch_normalization_4/moving_variance"
  op: "Const"
  attr {
    key: "dtype"
    value {
      type: DT_FLOAT
    }
  }
  attr {
    key: "value"
    value {
      tensor {
        dtype: DT_FLOAT
        tensor_shape {
          dim {
            size: 16
          }
        }
        tensor_content: "U(\215>\003\346\303>\375\355@?\n9\001?\240\365\361>\274\237\370>\243\245\003?}o\220>\315\'\303>\267BG?\034\005\371>k\2539?\377H\352>\350\262\267>3V\374>\256\240-?"
      }
    }
  }
}
node {
  name: "batch_normalization_4/ReadVariableOp_6"
  op: "Identity"
  input: "batch_normalization_4/gamma"
  attr {
    key: "T"
    value {
      type: DT_FLOAT
    }
  }
}
node {
  name: "batch_normalization_4/ReadVariableOp_7"
  op: "Identity"
  input: "batch_normalization_4/beta"
  attr {
    key: "T"
    value {
      type: DT_FLOAT
    }
  }
}
node {
  name: "batch_normalization_4/FusedBatchNorm_1/ReadVariableOp"
  op: "Identity"
  input: "batch_normalization_4/moving_mean"
  attr {
    key: "T"
    value {
      type: DT_FLOAT
    }
  }
}
node {
  name: "batch_normalization_4/FusedBatchNorm_1/ReadVariableOp_1"
  op: "Identity"
  input: "batch_normalization_4/moving_variance"
  attr {
    key: "T"
    value {
      type: DT_FLOAT
    }
  }
}
node {
  name: "batch_normalization_4/FusedBatchNorm_1"
  op: "FusedBatchNorm"
  input: "separable_conv2d_1/separable_conv2d"
  input: "batch_normalization_4/ReadVariableOp_6"
  input: "batch_normalization_4/ReadVariableOp_7"
  input: "batch_normalization_4/FusedBatchNorm_1/ReadVariableOp"
  input: "batch_normalization_4/FusedBatchNorm_1/ReadVariableOp_1"
  attr {
    key: "T"
    value {
      type: DT_FLOAT
    }
  }
  attr {
    key: "data_format"
    value {
      s: "NHWC"
    }
  }
  attr {
    key: "epsilon"
    value {
      f: 0.0010000000474974513
    }
  }
  attr {
    key: "is_training"
    value {
      b: false
    }
  }
}
node {
  name: "activation_3/Relu"
  op: "Relu"
  input: "batch_normalization_4/FusedBatchNorm_1"
  attr {
    key: "T"
    value {
      type: DT_FLOAT
    }
  }
}
node {
  name: "separable_conv2d_2/depthwise_kernel"
  op: "Const"
  attr {
    key: "dtype"
    value {
      type: DT_FLOAT
    }
  }
  attr {
    key: "value"
    value {
      tensor {
        dtype: DT_FLOAT
        tensor_shape {
          dim {
            size: 3
          }
          dim {
            size: 3
          }
          dim {
            size: 16
          }
          dim {
            size: 1
          }
        }
        tensor_content: "\356\240\246>\013\'6>\265\362\335\2751a\374=3[\242>E\035\233=\232\312\n\276\276\211\212>\212\033\344\276\222\010\033?l\365\342\274\250\353\265\276\361d\225\275`w\273=\271\346v>\343t\341<>\010\010\275\252O\344>\031`I\276 R0?\0235\233=F\256\222>b\366\275>^\3758>S\332\303\276\177\255\241>\023\263\231>\322 \247=;m\003\276@\225\371\276\017\222?>\210\326{\276\253\223\230\276\022?\342<K\354(>\035p\010>\263\332\n\277\007|\320=Z\200)?R\305\203>\350\026\254\275\272)\022=\373\277s>\313\224\006\276\220f\276\2763\270\201\276\315\\\n\277\037r\036\277Nb\223>UdE?;K\226>\227t\314=5\352\233>\260\250\016?\177\026\252>\363\2167\274\362G\272\275\244PD>\265\007l=-a\237\275\203^\\>v\317\265>\"M\252>\344\234\325\276\262\322\377>\331\320\267>\335\354g>\210g\357\275\336c-\277\221\231&?\027\263\230\274No\242\276\000{\026\276NG\036?`lM?j\274\232\276\337\0378\275\002=\n\277F\267*=\t\304\330\276\337\214*\275/(Z>x\242\321=\202\223\211\275\344\251\363\276\327w\315<\364\342\262\276\032\264\223\276\331NV\276hu\231:\014\325]>\266\257\341\276\375G\004\277\374\244\031\277iQ\220\276\364\210F\276Eax>\022\332\004?\200.\035?y\215\240=\315\225l\276\304\250c=E\342>>I9\006?A\262\373=\337=\255\2762\222\326> \022\242\275\274\373\212\276\274\337J\276\270\013\356\276L\236\242\276\301c\231=\020\242\013\275\362\262\317>\200G2\277\261#\224\276S\222\002?\221\177\271\276\000\213\305=\342\226\024\276\361\032\320=\363\200G>Z\033\301\276cq\244<$\001\377\273RsP\276!xI=\352 \213>\230\310\231\273}\217\367=\327\232\206\276m\014\265=\242\206\350>7\325\223\276~8\225\276\345\250\335\276\244\177\036?A\032\203>\340\265\266\276\300QR\276\247\0316\276\036\251\235;32m>"
      }
    }
  }
}
node {
  name: "separable_conv2d_2/pointwise_kernel"
  op: "Const"
  attr {
    key: "dtype"
    value {
      type: DT_FLOAT
    }
  }
  attr {
    key: "value"
    value {
      tensor {
        dtype: DT_FLOAT
        tensor_shape {
          dim {
            size: 1
          }
          dim {
            size: 1
          }
          dim {
            size: 16
          }
          dim {
            size: 16
          }
        }
        tensor_content: "\256\022\342>#\033G?EO\032>\264\302\346\276\027\006\035>p\016\361\275\016 \034\277!\265\331\276|\307\216=\366\247\013\277_\034\257\276\261\215\035\276\351W\236>S=\221=\311\264C>\307\331\352=\364\014C?\242\253#=r)\271>\372\364\321=\260p\320>\364\3332\277\327\210y>\037-\004>\337\310\372>\226\037\274=\t\313G>\324\303w\276%\357\262>\017ND\277\345\360\027?G\237R>\335\357\212\2761\203\212\276Df\204>%\377d?:0\217\276\371\346i=\226?/\276@\240\r?\366w\252>\017\367\345\276F\024\315>O\221\332\274\241bA>\021\3776>\2727\303\276\022wu>\277*\360;\322\340\350\276\321Bp?.:\303\275\262\224\242\277\225\255\r?\310e\265\276\351\322\204>\327\004G\276\177\014\224=\n\\\257>\000\301\237<u\005\345>,=\307>Ns\033>\003\343e\276\204?\006?\014JZ\276\373v\247\276On\317=\t\242A?\372\242d\277\334Y2?Y\022\221=%\336\207\275`\177\255\275Z\034\317>\235Rn?d\210\237>X\332\024>]\336\227\274k\346\311>R|[>\r\036\212\276\207C\327\2769\333E?\225+\256\276\230\232!>\234o\345>\2171\267>\006\206\254>\001\204\302\275(\333[>\221|\231>\014\364\030?\031_\003?\245I\323\276\177\027d>=(\266\275\324\006\232=g\234\035\277\315E\222>5\237\304\276\022\252\365>\216\013\">*\206\307\276\321\022\376=M\'[?\264Z\360>\"+\351>\364X\375\274\nF\332\276d\031D?\216\374\261\276e}L\276\224r\276\276\223!\005\277\340U!\277\023H\227>\200V5=C\335\354\275\017\035\313;\022\263\002\275#4\232\276\236\023:?\277\337\351>\363_U>\334)\217\276w\177 \277#C\253\275\221A\026>\276\310K\277\314\357\234>\277#\226\276\275Z\310>Z?\257<\254pd>\304\341\314\275\001\024\030\275\371[\371\275\357\252k\277\254\224\020>\215\335\313>\347!\202>fSC\275\361\262\002?\267\354\365\276e\027\272>Fr\303\276}\250\005>tO\361\276\005\205\232>\323\014\232?\222\"\"\277\264X\002?\325\377\354=\317\354\'\276jxh<)n\033\277.\030\257>\214\235\270\276\214u\037<\343]\272\276)q\335\274\017n\313=u\037f\276}X\372\2762o\275>\356\347T\276~.`?f\371\335=\232\327\020?\352\352\267\274\264\r\343\273M\340\027?)\332:\273\316\r\254\276\300i$\277(P\014\277\n/\341\276\222\"U>\205\316\273\276\227\031\267\276\333\237C<\214\021\206=\326-\201\276o\362\000\277\302\017\007?\0329)\276\311d\371>\210\345\277\276t\n\372>\343\036\232\276\356\020\023\277E\3259\275> \313>C7\223>\254\204\302>_\270\221=\241d\260>\321)\330\274\216\345y\276\223G\222\276\300\022D\277UB\006?\266\306\261>\003\311\037\277%\373\240>\270\376\200\276\243\360\211\2751\010\236\276\326\367C\276\314\310z>\321\203\031?*b1\276\223\210\240>/ \005<\320/g?3}4=+\253\005\276S\205\210\2769\217L\277\363u;?l$\222\276\210z\211>7\323\033?\332\343s\276\206w\372<B\350A>\347\017%>\321x\264\275\227\302\343=) z>\207wJ>;\364a?m\013!\277\351\341\362>\267\312\210\274\355\245U>\375(\240\276\333\244B\275\202\214\330\276\372\356\370=X\217\242\276\304\344\215\276\252\335k>|\016\365\275\225_E\276j\306a\276\266(s\2719v\000?\217^\023\277H\177\207\276\276\375\335>Z\230\031>\032e\351>\357\323,\277\336gT\277"
      }
    }
  }
}
node {
  name: "separable_conv2d_2/separable_conv2d/ReadVariableOp"
  op: "Identity"
  input: "separable_conv2d_2/depthwise_kernel"
  attr {
    key: "T"
    value {
      type: DT_FLOAT
    }
  }
}
node {
  name: "separable_conv2d_2/separable_conv2d/ReadVariableOp_1"
  op: "Identity"
  input: "separable_conv2d_2/pointwise_kernel"
  attr {
    key: "T"
    value {
      type: DT_FLOAT
    }
  }
}
node {
  name: "separable_conv2d_2/separable_conv2d/depthwise"
  op: "DepthwiseConv2dNative"
  input: "activation_3/Relu"
  input: "separable_conv2d_2/separable_conv2d/ReadVariableOp"
  attr {
    key: "T"
    value {
      type: DT_FLOAT
    }
  }
  attr {
    key: "data_format"
    value {
      s: "NHWC"
    }
  }
  attr {
    key: "dilations"
    value {
      list {
        i: 1
        i: 1
        i: 1
        i: 1
      }
    }
  }
  attr {
    key: "padding"
    value {
      s: "SAME"
    }
  }
  attr {
    key: "strides"
    value {
      list {
        i: 1
        i: 1
        i: 1
        i: 1
      }
    }
  }
}
node {
  name: "separable_conv2d_2/separable_conv2d"
  op: "Conv2D"
  input: "separable_conv2d_2/separable_conv2d/depthwise"
  input: "separable_conv2d_2/separable_conv2d/ReadVariableOp_1"
  attr {
    key: "T"
    value {
      type: DT_FLOAT
    }
  }
  attr {
    key: "data_format"
    value {
      s: "NHWC"
    }
  }
  attr {
    key: "dilations"
    value {
      list {
        i: 1
        i: 1
        i: 1
        i: 1
      }
    }
  }
  attr {
    key: "explicit_paddings"
    value {
      list {
      }
    }
  }
  attr {
    key: "padding"
    value {
      s: "VALID"
    }
  }
  attr {
    key: "strides"
    value {
      list {
        i: 1
        i: 1
        i: 1
        i: 1
      }
    }
  }
  attr {
    key: "use_cudnn_on_gpu"
    value {
      b: true
    }
  }
}
node {
  name: "batch_normalization_5/gamma"
  op: "Const"
  attr {
    key: "dtype"
    value {
      type: DT_FLOAT
    }
  }
  attr {
    key: "value"
    value {
      tensor {
        dtype: DT_FLOAT
        tensor_shape {
          dim {
            size: 16
          }
        }
        tensor_content: "\336}\240?\267\277\235?\273\232\013?|\207\224?Lk\241?M\250\216?w\201\304?\364\324\270?5\216\242?\234\242\372>\226b>?\034\336\307?jM\246?>\031\277?\001\016\221?(D\267?"
      }
    }
  }
}
node {
  name: "batch_normalization_5/beta"
  op: "Const"
  attr {
    key: "dtype"
    value {
      type: DT_FLOAT
    }
  }
  attr {
    key: "value"
    value {
      tensor {
        dtype: DT_FLOAT
        tensor_shape {
          dim {
            size: 16
          }
        }
        tensor_content: "\344\342\371\276\304\025U=r1\250\276\025-\327\276\236\263{\276<\373\262>\007\002G>8/&\274-\324G=\304\303\217\276z*\361>?\'K\276v\374\225\276\344\014Q\277\035V\026?\220\271\004\276"
      }
    }
  }
}
node {
  name: "batch_normalization_5/moving_mean"
  op: "Const"
  attr {
    key: "dtype"
    value {
      type: DT_FLOAT
    }
  }
  attr {
    key: "value"
    value {
      tensor {
        dtype: DT_FLOAT
        tensor_shape {
          dim {
            size: 16
          }
        }
        tensor_content: ")\274\257>\362\240\320?z>\005\277\250\020\230=\237\326\265\277\t\027C?N\324S<\273&w\276\\\342\252? \305q?7\230\314>\336\211\201\277\014pL>_K\006\277\333\340c\273X\252\237\276"
      }
    }
  }
}
node {
  name: "batch_normalization_5/moving_variance"
  op: "Const"
  attr {
    key: "dtype"
    value {
      type: DT_FLOAT
    }
  }
  attr {
    key: "value"
    value {
      tensor {
        dtype: DT_FLOAT
        tensor_shape {
          dim {
            size: 16
          }
        }
        tensor_content: "\023O\364?/\223N@58\031@\214\325\001@\031\252\221@x+8@\207\301^@n%J@\232\311\354?\n\357\372?\004\251\333?\262\2437@ZX\030@Xg\016@j\252\335?\'\350#@"
      }
    }
  }
}
node {
  name: "batch_normalization_5/ReadVariableOp_6"
  op: "Identity"
  input: "batch_normalization_5/gamma"
  attr {
    key: "T"
    value {
      type: DT_FLOAT
    }
  }
}
node {
  name: "batch_normalization_5/ReadVariableOp_7"
  op: "Identity"
  input: "batch_normalization_5/beta"
  attr {
    key: "T"
    value {
      type: DT_FLOAT
    }
  }
}
node {
  name: "batch_normalization_5/FusedBatchNorm_1/ReadVariableOp"
  op: "Identity"
  input: "batch_normalization_5/moving_mean"
  attr {
    key: "T"
    value {
      type: DT_FLOAT
    }
  }
}
node {
  name: "batch_normalization_5/FusedBatchNorm_1/ReadVariableOp_1"
  op: "Identity"
  input: "batch_normalization_5/moving_variance"
  attr {
    key: "T"
    value {
      type: DT_FLOAT
    }
  }
}
node {
  name: "batch_normalization_5/FusedBatchNorm_1"
  op: "FusedBatchNorm"
  input: "separable_conv2d_2/separable_conv2d"
  input: "batch_normalization_5/ReadVariableOp_6"
  input: "batch_normalization_5/ReadVariableOp_7"
  input: "batch_normalization_5/FusedBatchNorm_1/ReadVariableOp"
  input: "batch_normalization_5/FusedBatchNorm_1/ReadVariableOp_1"
  attr {
    key: "T"
    value {
      type: DT_FLOAT
    }
  }
  attr {
    key: "data_format"
    value {
      s: "NHWC"
    }
  }
  attr {
    key: "epsilon"
    value {
      f: 0.0010000000474974513
    }
  }
  attr {
    key: "is_training"
    value {
      b: false
    }
  }
}
node {
  name: "conv2d_3/kernel"
  op: "Const"
  attr {
    key: "dtype"
    value {
      type: DT_FLOAT
    }
  }
  attr {
    key: "value"
    value {
      tensor {
        dtype: DT_FLOAT
        tensor_shape {
          dim {
            size: 1
          }
          dim {
            size: 1
          }
          dim {
            size: 8
          }
          dim {
            size: 16
          }
        }
        tensor_content: " \355\222>\004;?\276\215\370\245=\253\267\222>\024\373E>\232\010\245\275\030Q5\277\263!\267>8\326\030=\314\216b>U)\230\273\206\316\264\276\213B\305>Nr\027?\360m9\276c\264\017>\300\207!\277\003_\033?\340\350\014\277(\241\201>\312\346\202>\206]\006\276\265q\364\275V\255\222>p\227\002?\225i0\277\355\211\205\276Q\311\306>\311\332\357\276\232\376q?\313\313E?j\366\232\274X\032\337\2768\361\305\276\376\2456\277y\241\236>?\306\026?\376\303_\277\227HH\277\276[N?\3445\263>\223e\001\277\323J5?\334L\240\276\026\372\022?\376z\367=\254\336\364\276\267gs?3I9>\340\333\006\276\330\375\025\275\355\366\232\276\247\262\307\2759:\205>\245d\361<Cx\037>\335\321;<Wb\003\276GqD\275J\362 >\310\266I>\300W\247>,\352\207<V\272\024=\336N\202\276\315~[>\nu-\276\023XM>\'\355:?B\224;\277f\023\250>\013\350:?\034\rR?\372\235\214\277\226\350\265\276\366\324\233\276(\366\215\275\231|\237\275Y\023\r\276\022y\025>\3521\035\276K\226\325=\025f\266\27668\227\276\340\213V\276\246\330\177>\023\254k>\273\003l\276p\000\255>\330\262\203>*\276\223>G\276\333\2769_\357\276&\235>?\325\027\333>\360L\307\275\324r\244\275\325\205\370>\t\002\332=\202\r\251?es\205\276\021\250\234>\372\241\236\276e1\333\274Te\025>\006\260\000>\030\016\300<:\030\256>R\276\t\276\346s\367<\354\302\035?C|$\277qK\235?\364\013\014\277\372nT?\201\206\213\276\3350\320\276\244\006\016>\242\272\277\276\215\226\201>\321k\201\276\206\317\345\276I\277\212>\024\026\021\277\256\'\312>\010\307\030>%\005\224\276\022&\365>"
      }
    }
  }
}
node {
  name: "conv2d_3/convolution/ReadVariableOp"
  op: "Identity"
  input: "conv2d_3/kernel"
  attr {
    key: "T"
    value {
      type: DT_FLOAT
    }
  }
}
node {
  name: "conv2d_3/convolution"
  op: "Conv2D"
  input: "activation_2/Relu"
  input: "conv2d_3/convolution/ReadVariableOp"
  attr {
    key: "T"
    value {
      type: DT_FLOAT
    }
  }
  attr {
    key: "data_format"
    value {
      s: "NHWC"
    }
  }
  attr {
    key: "dilations"
    value {
      list {
        i: 1
        i: 1
        i: 1
        i: 1
      }
    }
  }
  attr {
    key: "explicit_paddings"
    value {
      list {
      }
    }
  }
  attr {
    key: "padding"
    value {
      s: "SAME"
    }
  }
  attr {
    key: "strides"
    value {
      list {
        i: 1
        i: 2
        i: 2
        i: 1
      }
    }
  }
  attr {
    key: "use_cudnn_on_gpu"
    value {
      b: true
    }
  }
}
node {
  name: "max_pooling2d_1/MaxPool"
  op: "MaxPool"
  input: "batch_normalization_5/FusedBatchNorm_1"
  attr {
    key: "T"
    value {
      type: DT_FLOAT
    }
  }
  attr {
    key: "data_format"
    value {
      s: "NHWC"
    }
  }
  attr {
    key: "ksize"
    value {
      list {
        i: 1
        i: 3
        i: 3
        i: 1
      }
    }
  }
  attr {
    key: "padding"
    value {
      s: "SAME"
    }
  }
  attr {
    key: "strides"
    value {
      list {
        i: 1
        i: 2
        i: 2
        i: 1
      }
    }
  }
}
node {
  name: "batch_normalization_3/gamma"
  op: "Const"
  attr {
    key: "dtype"
    value {
      type: DT_FLOAT
    }
  }
  attr {
    key: "value"
    value {
      tensor {
        dtype: DT_FLOAT
        tensor_shape {
          dim {
            size: 16
          }
        }
        tensor_content: "\237V\216>\340\262<?%\232\273?\353\223d?\006\0300?\035\3043?Ef&?5J??\263\307^?\312\033\265?\3329\234?\224\272)?\257]]?\023\'\322>2jV?h\253X?"
      }
    }
  }
}
node {
  name: "batch_normalization_3/beta"
  op: "Const"
  attr {
    key: "dtype"
    value {
      type: DT_FLOAT
    }
  }
  attr {
    key: "value"
    value {
      tensor {
        dtype: DT_FLOAT
        tensor_shape {
          dim {
            size: 16
          }
        }
        tensor_content: "\342\342\371\276@\023U=M1\250\276$,\327\276\010\260{\276\210\373\262>{\002G>w&&\274h\316G=\334\301\217\276\234*\361>\327&K\276\302\374\225\276\227\rQ\277oU\026?\376\266\004\276"
      }
    }
  }
}
node {
  name: "batch_normalization_3/moving_mean"
  op: "Const"
  attr {
    key: "dtype"
    value {
      type: DT_FLOAT
    }
  }
  attr {
    key: "value"
    value {
      tensor {
        dtype: DT_FLOAT
        tensor_shape {
          dim {
            size: 16
          }
        }
        tensor_content: ")zt>\324\355[=4\360\340\276\262r\236?V\232z?}\033\204\277cW\246\277p\242\023@G\336\316?\360\027\036\300x\354#>\312\357(\277D\022,?\026{\344?\250\330i>K\236u?"
      }
    }
  }
}
node {
  name: "batch_normalization_3/moving_variance"
  op: "Const"
  attr {
    key: "dtype"
    value {
      type: DT_FLOAT
    }
  }
  attr {
    key: "value"
    value {
      tensor {
        dtype: DT_FLOAT
        tensor_shape {
          dim {
            size: 16
          }
        }
        tensor_content: "S}\323?\254\213&?\243l\340?\23526?a>\246?\206\270\304?\340\227R?\206E\257?\250\327\214?\2752\313?\014\220\007?\203\260\336>V\205\030?\215\3074?\\M!?\370\347\266?"
      }
    }
  }
}
node {
  name: "batch_normalization_3/ReadVariableOp_6"
  op: "Identity"
  input: "batch_normalization_3/gamma"
  attr {
    key: "T"
    value {
      type: DT_FLOAT
    }
  }
}
node {
  name: "batch_normalization_3/ReadVariableOp_7"
  op: "Identity"
  input: "batch_normalization_3/beta"
  attr {
    key: "T"
    value {
      type: DT_FLOAT
    }
  }
}
node {
  name: "batch_normalization_3/FusedBatchNorm_1/ReadVariableOp"
  op: "Identity"
  input: "batch_normalization_3/moving_mean"
  attr {
    key: "T"
    value {
      type: DT_FLOAT
    }
  }
}
node {
  name: "batch_normalization_3/FusedBatchNorm_1/ReadVariableOp_1"
  op: "Identity"
  input: "batch_normalization_3/moving_variance"
  attr {
    key: "T"
    value {
      type: DT_FLOAT
    }
  }
}
node {
  name: "batch_normalization_3/FusedBatchNorm_1"
  op: "FusedBatchNorm"
  input: "conv2d_3/convolution"
  input: "batch_normalization_3/ReadVariableOp_6"
  input: "batch_normalization_3/ReadVariableOp_7"
  input: "batch_normalization_3/FusedBatchNorm_1/ReadVariableOp"
  input: "batch_normalization_3/FusedBatchNorm_1/ReadVariableOp_1"
  attr {
    key: "T"
    value {
      type: DT_FLOAT
    }
  }
  attr {
    key: "data_format"
    value {
      s: "NHWC"
    }
  }
  attr {
    key: "epsilon"
    value {
      f: 0.0010000000474974513
    }
  }
  attr {
    key: "is_training"
    value {
      b: false
    }
  }
}
node {
  name: "add_1/add"
  op: "Add"
  input: "max_pooling2d_1/MaxPool"
  input: "batch_normalization_3/FusedBatchNorm_1"
  attr {
    key: "T"
    value {
      type: DT_FLOAT
    }
  }
}
node {
  name: "separable_conv2d_3/depthwise_kernel"
  op: "Const"
  attr {
    key: "dtype"
    value {
      type: DT_FLOAT
    }
  }
  attr {
    key: "value"
    value {
      tensor {
        dtype: DT_FLOAT
        tensor_shape {
          dim {
            size: 3
          }
          dim {
            size: 3
          }
          dim {
            size: 16
          }
          dim {
            size: 1
          }
        }
        tensor_content: "\032\016\017\277\253\262\"\277Z\334\020\276R!\237\276\203\364\n\277\307\207\213\276%\260\334\276\t*\355\275\364\235\036>y\302\203\276y\374|>\334\344\333=\037\020\275>\3040C\275\266\322\317=\036K\227>\005\345_\276\341\255\020\277\275\207\376\276}\311\231\276\3737\341\276r\225\277\276;\303\032\276\302\314\023>\272bj>\205\365\347:\340qX\276\227R>\275\352\371\326>\024\211\024\276\352\202\035>\362\322\036?\247;`\274\375=\222\276\233\265\255\276m|\201\276\021\372\375\276\357P\214\276\212\305\220\274_\013\023\277\033\354\376\275]\231\017?)\310{=%\366\204\276y\010\261>_\315B>\037u\200>\227\321\245>(\036\312\274N@b\276\357\005\303\276\r\367d\275\205\357\257\276\236\356\264\276\244\211^\274\364\375\\>LF\347>\310\305>\277X,\022\276\312\371$?\250L\357>\266\263\234>G\213\340>@>\332=C\001\312>@L\233>Eu\240=OE\200>\"\351\204\276=\251\003\277\004\363\234>\336\r\201>\325O=?\005\220\033\277\323\341&\277\347\317\214>\203\034\326>\261\372y>\205W\010?0[\030\274\317\216\217>\307\005\252=\255f\373>v\025S>\361\223\n\277EE7\276G\362\236>\341\026\000\276\365\177\257>I\272\363=IC\241\276hB\322\275\006\3275>&@\r?\342^\307>\360\267\230\276Um\205>+H\027\276\322i\376>\237\004d>\315O\334<{\375\276\276a\035\362>2`\262>#\361\323\2763\225\210\275H\233\213=x\366\204>\237\246\010\276\"^\273>\306-P>\\u\005>\306\336\304>Q\226\024\274\n\311\033?gz\007?\351KZ<^6\001>\336\227\273>A\035\306>\361ef>\345\213\300\276\206\000\324\276Vh0\275\370,g\276(\304\257>\371\033?>!\224\215>8h(>#\356\207>\260\230\024>f\371\302>\3348%\276\343\2643>\004&e>\036\304\271>\227\354\201>-#\217\276\255\372.\276\346\326\302\276E`\233\276\324\020x=\333\017\205\276\356\233\221>"
      }
    }
  }
}
node {
  name: "separable_conv2d_3/pointwise_kernel"
  op: "Const"
  attr {
    key: "dtype"
    value {
      type: DT_FLOAT
    }
  }
  attr {
    key: "value"
    value {
      tensor {
        dtype: DT_FLOAT
        tensor_shape {
          dim {
            size: 1
          }
          dim {
            size: 1
          }
          dim {
            size: 16
          }
          dim {
            size: 32
          }
        }
        tensor_content: "W\024D\276\316\002\202>7\213S\276\377\n\241>\306L\n\277@Z\253\276\000<\275\275\027\245>\2769\314\246\276\351\254\277\275.\234;\276L\002/>\305\225L\275|\330M>\036\2759>,\203\023\277\246N%\276_\352Z>\310\307\2756\224\325F?,U\224=\217R\325\276+\303\314>\0264\215\276\\>\035?\223\261\307\275\213\352\020\274\010\201c\276r\353\216\276X\270Y?\200\302\r?\214/\226\276\243\030\245>\307\324\267=\302sJ>\316w,\276\324\224\231\276+\367\371\275\3737P=1m-\277\\C\234\2766v\311\276\206M\306>~\257H?\002\223\">g\370E\277\302S\004?\252BJ\276\203\256\024?2\202\005?H=\203>\334S\360>1T\333>\r\242\203\276i\313\217>\307y\025?\233\334\256>\235p\236>\323\312\311\276%\214\204>]\201\213\276RC\016>y3\272=Y\343\337=K\324\235\277\222}\305\276Z*\033>\254\234\240\276\240x\344\276\230\r\001?T\265@\277y\341P>\005\037\307=\352|\253=\016\013l>\244\n\240\276\n\377=<(\376\371>On\321;0g\227>\355\005\335\276\335(\233\2769\034\352\276\013\330\256>\034\3327?\260\212\255>\324%)\276\275\2033\277\306\262\317\276\":\371>\231\244\035?\333v\024>l\273\270=2\031H>Kd\002>\037\'\346>\355:0?\375\361,\274T\024I>\252\226\021=`[\351\274\303`\035=\307U\223\276\204d\232=NT\373=:\210\020?\356\006\276=k\000I=^a\247>\022:\345\276|\273\313>F\210\346\276\314\373\205>\253Zp>\335z\014\277\021\024\353\275\272\302\202\275\207\214+\277z\324\006\277\350\001\252>\302\326\301<\202\351U>\254\021\341\276X3\031>u\030e\276\304\030\337\276U;p\277\250\312\263\274\241B\000\277\335\336\342\276\230\\u>\223\243\377\276J\0062\277\026\350\217\276\345\351\035\276\263\255\222\275\236g\322>\216fK\277\2218,\276\030!\210>\301o6>\032\357,>\311\265\210\275n\344\001?1\302\203\276\263Y_?\034\377j>~\362\023>\266\256\000?\031\356\301\276\203\301\326\276\273a\246=5S\320\276\020\351q\277v\260\333\275,\227L\276\322\255e\275-\276\240\276\301\257\352;\273:;\276\346\255x>\247\001\264>w\245\263\275\025\366\016?\025\224\216=\322\275\037\277\322C\365>Xj\"?\303\344&>!D\215\274\254\263\r<\232\330\320\272\270.s\276:\376\237\276\247\206\027\277\031k\271>y\201\247=\244A\261\275\362\177O\277\037\326}\275\340\360\256\275\224\'\257\2769\222\363>\2142\001\276\241\327\330\276C\311%\277\240\361\263>\244\353\217=\303w\264\275\010)\010\276\315\315\241=\201T\300>\326\220\224>\261\005\337>\340\023\006>F\022\232>b\314C>\341\205M\276\"\302\'\276\2041\'\276r\234\347>0\341\344\275Z\360\232=\311Ld?>+\277\276\'Y\323\276\356\222.?q\231\001>\371\037\242\277\233\311\204\276\363-A=\244\271\036\276\356k\221\275\360\313\014\277\250C\365\274\033\206\030=\031\276\004=\307\\S\276\215C\202>\360\001I\273\314\375\027\277\363R\340\275X\200\000?\236\225U=\262I\227\2740\375\326>\347\367w\275\261\004\224=gi/\277\004\275\034\277]\0106=+\330\346>\020\235Q>\220_\262<\021\355C\277\370NU\276\370\2716\276\256\273d\276\025\263\243>\207\016\365\276\360[\343=\372pl\276\021>$\277\243\306\030?\335n\372=\276\025\216\276\231%\000\277N-#\277\360\222\312>\323\350\200\276C\205r= C\032\276\016\310\325=\262\222\006>\205\004\243\276\002I\244>\'U;<\024\212\025>\n\030\373\276\252\253\212>\330OM>\210\375\312\276\20635>\277O\247\276\240\233t\276\316\326\026?\2635.?\331\312\201\275\023\355\024?+\371\352<\005{G?\361\270\372=\347\215\265\276a\"\320\276\274r\346\275\001i\017?\365J\036\277\326\205\255\276W\232\336>M.5\274\255\341\303\276\232\332\035=\224\025\001\277U\021\014\277n\017\241>\000mN\276IK\336>]\266\320\2763\266\241\275K\324\003?q:\373\276\335\323\275>\3508\377=\030\337\303>\026\021{?\217\214\365\276\0008b?]IF<\323X.\277#\211\t> o\215\276\177\353\231>\312\351v\276\332\223t>\352Ci\276\304\270\354>\211D\253=\371\321\366\276$v\326\276W\351h\276M54\276\357\207#\277w\363\262>\274n\274\276\030:\324\276\327\236v\276\2426b>\370\220I>\237\313\032\276\221\212\202>\321o-\276\311\017\014?R\200A>\225\326\234>Q\365\357>\232\006.>Q\312\335>\211hV>\ts\035>\005<\272\276\246\377\275>Ops>\242\251m\277R\313\311>\\\215\\>}\333\234>%8@>\325C\312=\021A\214\275\272E\021\276\221;@>\002\\\207>\004\r\322\274\302x7\276-\320\014\276O\311~\275;Q\032\277\373\0214=v\333\334\276\2568\t?\350-\313\276\360\216\030?i\272\312>\370\343\n\276UEs>\2437\350=\236\3113?\276\356\266\276\325H\251\276+/\001\277[\237\320\2767\271\317\276\371R\017?\363\357|>1{->\\\305\014\276z\343\003>\351\301\305>\312\352\234>\212%\231\276\240\365^\276Y8\277\276\242\374z\275(,1>\177\r\315\2740D\305\275\206w\243\276\235\314\034\276\331\354\333\276\177\242\203\277\r\226\351>\331\nn\276\021-\214\276q>h\274.@d=z\005\n\277\265\304\004?(\355_\277&K\245\276\214\324\226\276\"\266)\276#X\">\340\220(>\234\n\270>\354_M>=\354\346\276\023@\024>\006\005\326=\370\027q\276\310C\220\276\3606\251\276\354\t<\2758\214O?\t2n\276\2517W\276\016\316\340>\210\240t\275\023\352\375\276\262\222\316<\234\330\014\277\021\202\314<\3065d\276\324\370\205\276m\226\024\277\363\251\233>\210\373U\277{\236\327\276\266J\300\276p\320o>f\356\200>\203\306[>\010\371\204>\342\351\271\276J\356\347\276\342\200\020\275\204\230\330>j]\026\276\000\201\340=\250\010\221=\377\320\313\274\236W\261>\350\235\324>\\.0\277\206#\206\276\023\313\356\275a\000\234=\356!\242\274\307b\n\277\357\317\337\276S\336\330>pM\002\277H\037\036\274\246E\320\274l\330 \276?\367\273\276R+a\277\311\025j\275\236\337-?N\354\272\274u\n\273>\220U\205\276X\315l\275\257\234\217\275\272e\203\276\021\323\337>o/\206<\032\201!\276\310\037S=\364\022\304\2731\275\332\276\367\321\227>\312\227\267\274aQ\335=\326\002A\277\177\025\253\275A\353Y>s[\354\273K$\006\277\017\010\005\277a*\253>\363~\030?#dx\275\377HM?P(\350\273\361\222d\276\177*\324\276\337\\\210?\305*\227\275m\333T=*\326\240\276\224\211\367\276-\202\032>\250)%\277\345v\002\276\365\367\273=\323\261\007?;q\217\275Z\263\221\276\330\214\'\277\332\002T\275\337(q\276\014N\266\275 \227\324\276x\214\031?\036\373\307>z\373D>%\2231\276\3526\267>Q-d>\345\222g=\r+\305\274\216\n\202\276`4\325>\205(\343\276\330}\236\276P\010\310>\277\207\031?\030\372\025\277,\216*=\365@g>\314\236\241>#\214\374\275"
      }
    }
  }
}
node {
  name: "separable_conv2d_3/separable_conv2d/ReadVariableOp"
  op: "Identity"
  input: "separable_conv2d_3/depthwise_kernel"
  attr {
    key: "T"
    value {
      type: DT_FLOAT
    }
  }
}
node {
  name: "separable_conv2d_3/separable_conv2d/ReadVariableOp_1"
  op: "Identity"
  input: "separable_conv2d_3/pointwise_kernel"
  attr {
    key: "T"
    value {
      type: DT_FLOAT
    }
  }
}
node {
  name: "separable_conv2d_3/separable_conv2d/depthwise"
  op: "DepthwiseConv2dNative"
  input: "add_1/add"
  input: "separable_conv2d_3/separable_conv2d/ReadVariableOp"
  attr {
    key: "T"
    value {
      type: DT_FLOAT
    }
  }
  attr {
    key: "data_format"
    value {
      s: "NHWC"
    }
  }
  attr {
    key: "dilations"
    value {
      list {
        i: 1
        i: 1
        i: 1
        i: 1
      }
    }
  }
  attr {
    key: "padding"
    value {
      s: "SAME"
    }
  }
  attr {
    key: "strides"
    value {
      list {
        i: 1
        i: 1
        i: 1
        i: 1
      }
    }
  }
}
node {
  name: "separable_conv2d_3/separable_conv2d"
  op: "Conv2D"
  input: "separable_conv2d_3/separable_conv2d/depthwise"
  input: "separable_conv2d_3/separable_conv2d/ReadVariableOp_1"
  attr {
    key: "T"
    value {
      type: DT_FLOAT
    }
  }
  attr {
    key: "data_format"
    value {
      s: "NHWC"
    }
  }
  attr {
    key: "dilations"
    value {
      list {
        i: 1
        i: 1
        i: 1
        i: 1
      }
    }
  }
  attr {
    key: "explicit_paddings"
    value {
      list {
      }
    }
  }
  attr {
    key: "padding"
    value {
      s: "VALID"
    }
  }
  attr {
    key: "strides"
    value {
      list {
        i: 1
        i: 1
        i: 1
        i: 1
      }
    }
  }
  attr {
    key: "use_cudnn_on_gpu"
    value {
      b: true
    }
  }
}
node {
  name: "batch_normalization_7/gamma"
  op: "Const"
  attr {
    key: "dtype"
    value {
      type: DT_FLOAT
    }
  }
  attr {
    key: "value"
    value {
      tensor {
        dtype: DT_FLOAT
        tensor_shape {
          dim {
            size: 32
          }
        }
        tensor_content: "\002D\200?s\033r?\026\277\226?\216\005\232??\035\205?\306G\204?7d\214?\013s\217?^\227\226?\321\016\207?\215\005\214?\315\317\231?\340Ns?\260\256p?\362\335g?Zu\212?\302a\214?\371\030\215?#\365\213?d\255p?#\027\256?A\373\221?]\205\214?s>\222?\177\006\205?{\335n?\260\263\223?g\235\227?^\305\231?j\002t?\024\234V?\001/\217?"
      }
    }
  }
}
node {
  name: "batch_normalization_7/beta"
  op: "Const"
  attr {
    key: "dtype"
    value {
      type: DT_FLOAT
    }
  }
  attr {
    key: "value"
    value {
      tensor {
        dtype: DT_FLOAT
        tensor_shape {
          dim {
            size: 32
          }
        }
        tensor_content: "%\222\302\276\007\211\022?-3\301>U\n\241\275\221}\004\276\026\2434\276{\211f\275J\017Y>\032\000\350\275\365\022\237>\237u)>\006\027\260>\307\251v\274)\252\342\276\364\330\343>\323\373\312>\371`8\276\3542\224\276\277\320\341\276\272\360\203=$^%\275\337J\022>\325=\217\275\2531\020\276\204\263\210>~F`>\346\275\234\276g\236\233>\266\206\232\276\362\032\242>1\000H\2769\331t\276"
      }
    }
  }
}
node {
  name: "batch_normalization_7/moving_mean"
  op: "Const"
  attr {
    key: "dtype"
    value {
      type: DT_FLOAT
    }
  }
  attr {
    key: "value"
    value {
      tensor {
        dtype: DT_FLOAT
        tensor_shape {
          dim {
            size: 32
          }
        }
        tensor_content: "7Z\206>\361\344\245?|\340[\300\004b\353\277\374\016C\276\354\273\314\276Xn\244\276o!\006\3009\001\t\300\"\274X@=\216\335\276\313\231D\300\240\317X@wJ\203?\265\224\215@\000\226\270\300Z|w\300\2261\352\277[\002$@ch\256\277h\350\244\300x\302\310?D\272\036@\374C-\300\376h\236@\266\306.@kd<>k\260\230\300\301\205\307@\334 \335\276\216\3446@3\241\274\300"
      }
    }
  }
}
node {
  name: "batch_normalization_7/moving_variance"
  op: "Const"
  attr {
    key: "dtype"
    value {
      type: DT_FLOAT
    }
  }
  attr {
    key: "value"
    value {
      tensor {
        dtype: DT_FLOAT
        tensor_shape {
          dim {
            size: 32
          }
        }
        tensor_content: "\273_\240A\001\276\231AX4\235AZW\224A\367\312MA\312\026?A\036)\305A\220\036.A\251\310eA\232-\271A\3504\035Am\331\224A\206\214\036A/\003HAb\265\265A\214\255\200Ap\311\273A\212\204\210A`-vAw{\003A\263\326\313A\317\020\221A+pkA\032\327sAT\302nA\267]2A\n&\226A\031\356\260AX}\221A\371LkAc:JA\020s\265A"
      }
    }
  }
}
node {
  name: "batch_normalization_7/ReadVariableOp_6"
  op: "Identity"
  input: "batch_normalization_7/gamma"
  attr {
    key: "T"
    value {
      type: DT_FLOAT
    }
  }
}
node {
  name: "batch_normalization_7/ReadVariableOp_7"
  op: "Identity"
  input: "batch_normalization_7/beta"
  attr {
    key: "T"
    value {
      type: DT_FLOAT
    }
  }
}
node {
  name: "batch_normalization_7/FusedBatchNorm_1/ReadVariableOp"
  op: "Identity"
  input: "batch_normalization_7/moving_mean"
  attr {
    key: "T"
    value {
      type: DT_FLOAT
    }
  }
}
node {
  name: "batch_normalization_7/FusedBatchNorm_1/ReadVariableOp_1"
  op: "Identity"
  input: "batch_normalization_7/moving_variance"
  attr {
    key: "T"
    value {
      type: DT_FLOAT
    }
  }
}
node {
  name: "batch_normalization_7/FusedBatchNorm_1"
  op: "FusedBatchNorm"
  input: "separable_conv2d_3/separable_conv2d"
  input: "batch_normalization_7/ReadVariableOp_6"
  input: "batch_normalization_7/ReadVariableOp_7"
  input: "batch_normalization_7/FusedBatchNorm_1/ReadVariableOp"
  input: "batch_normalization_7/FusedBatchNorm_1/ReadVariableOp_1"
  attr {
    key: "T"
    value {
      type: DT_FLOAT
    }
  }
  attr {
    key: "data_format"
    value {
      s: "NHWC"
    }
  }
  attr {
    key: "epsilon"
    value {
      f: 0.0010000000474974513
    }
  }
  attr {
    key: "is_training"
    value {
      b: false
    }
  }
}
node {
  name: "activation_4/Relu"
  op: "Relu"
  input: "batch_normalization_7/FusedBatchNorm_1"
  attr {
    key: "T"
    value {
      type: DT_FLOAT
    }
  }
}
node {
  name: "separable_conv2d_4/depthwise_kernel"
  op: "Const"
  attr {
    key: "dtype"
    value {
      type: DT_FLOAT
    }
  }
  attr {
    key: "value"
    value {
      tensor {
        dtype: DT_FLOAT
        tensor_shape {
          dim {
            size: 3
          }
          dim {
            size: 3
          }
          dim {
            size: 32
          }
          dim {
            size: 1
          }
        }
        tensor_content: "!\231\272>\362\223\260=\025e=>>({>\271Z\215>s\345\022\276\356\317v\276\t\226k>\270\"\241>\205\223\025?\022\247\254\276)\267$?\3332\203\276d:\356> \371\030>\200d\266\276;\203\225\276\001\007\361\276rg\334>\222;\367\2768\030\325\276\211\367\217>\324\324\'\276\274#\035?\266\261\262\276\003c\350\276\334[\010\276\337\363@>o\016n\276PT\355\275S\035;\271it\350>s\346\234>a\362\374\275\241+2?\370[`=\317:\261>}\363m\276PIA\276\370\331\030>\343,\232>\225\346\266>\276\'\376\276%Kq>\307KM=\0138\246=\312\362\020>\200\343\372\276\223\237\267\276\360~\034\276\031\321m>b\352\262\276W3\230\275\006\357\277>\240\333>\275B\3322>\353}\307\276$\t\005=\2369\275\276&:\026?\362\n\366\275tA0\276\201\010\216\276\365|\347>]\360\206>\372\312\003\277\256q\227>\036\001\364\276<\244\256>w\352\360\276\247\233\320\276xq^>\027\322\275>\250\201\215>\001 J<N4\n\276\2329\241\275\363e/\276\266V\263\276\006x\251\276o\231C\276\207\257\260=\300\200\316=>\007\302\276\257\371\264\276\326U\226>\r\304\025\276\305\234\250>;\272\305\276\374\257\212>\316e\005\277~\232\351>7\337\375\276\251G\237\275&\264j\275\277|\227>\031vu>f\222\300>\212\216n\275\rs\207=;\020\266=\314\030\353\275\212\326\351\2763b\002?\237\005\312>\257\304\303=\005*\262\276\016\0264=t\251\231\276J\336\037?\217\361\377>D<E\276\037\0262\277\207\252\024\277\360\200\341>\"\372\254\274y\323S>\033\347\364>8\265\325\276\346\205\010?(\252-=\236\310\022\275\\\270\305\276\200\334\n>7U.>3\320c\276\325M\324\275R\307%?\"\331\350>\200\315\025>\364\355\360>\031k9\276OHZ>\0170\262\276\353\312\204\276u\332\251>\026i\224>\006\3539>f[\253\276L\334\002\276NX\177\276p~\013>\337\245{>J\303\205\276\224\316\315\276o\242\276\276\312}\360>\372\365*\276\255\2260?\324\253\365>{\020\321\276]Z\342>\014\361\032\275Z\214\210>\213\210\363\276\225\312`=lp*\276\333\254\347\276\307^\010\276|\330\251>\366V\266>i\350\266=\364J\013?p\346\004\277L\233\252>\006\341\033\277me\363\276M\376\232=d\375\363>\017\2543>\334I5><u\213=\020\321}<\311\230R\275\263\253\356\275\307\252\214\276\036f\237\275\225\361}\276\347\264\261>\242\005\274\276\330\341\r<)T\315>Gr\271\276\311k\203>@\307\330\274+\274\202>\273\237\326\276&\260\201=t\246\312\276\3635\230\276\315\242u\276\177;\206>\223U\037=l\003\">s\377\262\276o\272\343\275\033\3142>7\2545\276V\341\355\274\274\333\035?\032\251H>\375\277\366\276\341\311\005\276(2\006\277\2231\333\276\n]X\276\202\274\273>\036\363-\276\377\305\301\275\205s\362\276\017HH>\215\014<>\376~\370>B\366\370\275\301w\271\276\362\362\225>x=\003\277\323\213\347>!\\0\276\252\305\220\276=M\010?\234w\202\276\301P\365\275d\347\275>\"G\207>W\342\262>\224<\276\274Z\374\005\277S\213\\>\001(\'\276r\353\240\276A\251\247>\005\227l>c\273\275=.\016\240=\313.\003\2779\355\235\276\311\370\274\276\177\204\241>Mk\020\277\0236\324\275h1*\276\341F\260>\224|\271=\316)\034?Ay\201<q3\277\276]\365a>\r3\274\276\302\333\263=\336l\324\276\"k\327\276\001\210\243\276\231\037\260\276\276/\274\276\337\215\356=AZ\234>G\345\276>\000?o>\225:\306\276Z\376\000?q\237\303=\002\221h\276\365\203\t>\374\320\017?*\3025\276X\376\311>C?\357=\302\205\211\276\307\3370\276\213!\026>Dw\026\275L0a\276\035\232\233=\314?\310>\336m\275\274\223\341s>\377\022\013>[\211h\276w\2072<\013:\202\2769\347g>8\2043\276qQ\321\276\307\301\363\276\321\026\237\2762}\004\277`\272\364:"
      }
    }
  }
}
node {
  name: "separable_conv2d_4/pointwise_kernel"
  op: "Const"
  attr {
    key: "dtype"
    value {
      type: DT_FLOAT
    }
  }
  attr {
    key: "value"
    value {
      tensor {
        dtype: DT_FLOAT
        tensor_shape {
          dim {
            size: 1
          }
          dim {
            size: 1
          }
          dim {
            size: 32
          }
          dim {
            size: 32
          }
        }
        tensor_content: "\022y\202>\243\204\345>\253\363\250=3T.\276\272\206\227\276*B<<\235e\333>2\341&?\032\014\340>\017\257\366>\347$@>\346\307W\275AC\003\276\345\250\310=\322\250\324>\251\214\215\276\006\314v>\315\355L\276\225S\304\276\330\247\236\276\257\\\272>\025(\240\276Ny\021>\t\250\033\276e\r\022?7\364^?\222\023\273>\325D\257=P\223\006?\334CR\274\350\373\260=\232N\245>\300\010\312\276\335\264\362\276\347]E\274~^\025\277\376\310\\=^\340\000>P\252\'?\0221\274\276*\237\335<\\\320\001\277\036\177m\275\331\016\345>~\370\274>\263\272\027\2778\351\371\276\247\330j>a\363\254>;I\277>\255cq\276b\3605=\326\251\220\276W\001t>\232\010|>*\006\007?!\246\006\276\340\302\214=t\353\325\276\276,o\276\026\250s\276\000\243p\275S\376\212\276\234A\322>\'\307\315\276\220\243\263\276\023c.\275[v\277\276g\0266\277\346\202\225\275\304\304\265<\264\270\023\277\206\255!>/\206 \277\214\007G\277\033\331\037>r\252\246\275\035[\243\276\302\223\225\276\327Ow\276\375\217\371>\356\247\333\274\266r\357\275\033#G\276\253S\222\276\202\3753\276\303\376\350=\273\243\241=)\335o>(\372\203>}\271\204?Cm\'\276\024\330l\276\264-\326\276u*\311>e\nU\276l\232\376\276P7|>\357)\324=\337\340I?@H\200>\343\251e\276\320\251\311\276|\004\014\276g\237\235\2769$\356\276l\324\352\275/\020\021\277q\364{\272\234\345\026>\215\202\244\276\332\237\314\276^\212\330\276B\374\r?)\226\033>\021\344x\276i\247\302\273\002\264l<\000\255Z\277{I\026=\237;\177>H\002\025>\032\252\214>-H\266\276\330;c>&\235\234\274\275[\320\276\007\014\207>\312\242\251>n\200\316\276\237\017/\275\254U\255=BB=>\376\255\034\276(\314j>\032P\021?;\013,?\270\200D?\035O\337\2762{\324\275\221\216\016\277\002\031\003?%5\332\276\320\234k\274a)\261=\033\221\205\276\264\226\233\276\3345\003\277\311\211i\2760\240\003?tu\004\276\220\276$\276\250\264\260>s\244\220\276oqQ\276\301\201(\276l\326\036\273Oa\371=\334\036E>\017S\003\276\320\376C\276\004V-?\004J;\277\314\\\333\276kO\312\276\332\314\270>\264\211\241\274\253\240x\276\036>\246\276iEm=\1771\025\276\222\217\377<t|{>K\231\006>\224\232\210\276\326\254\302\275\364#\220\275y\r\333\276\324]n\276g\262\326\275qB:\277\354\007#\275\031U\252>\025\330\215\2767\322\272>\360\214\327\275|&\007=\021\222\035\277/hd\276\306\301V>\254h\263\276N\262\024?\310\312\037?\307\313h>\017\205`\276\335@\334>\301\373\245>\031A,\277\211Gl>\243\250\'>Z\014\267\276P:\230\275\345\034\313>Kw\300\276\"\356z\276\367\177\273>dL\005\277s\\\310>\232\375\240\275\014\245\006?\203\366\006>z\220Z\276\203\214\014>\220\235v>\222\311\032\277\316)!\276y*\216>0\375\224>\367\325\241>\262\254\034\277k\326\032\276\353\253\024\275\310\300U\276\200\003e\276\246i\352\276\"\271\324\274C\322\277>\363\301\251>$\233\217>7\210B?u\324\210\276\214\315\362\276M}r\2774\210\034?;\036\222\276\231\273u\273\275\217\016?<|\004\274\221\334\311\274\333\245\262\275\201\030\243\276\325tG\275/1\207>\234\314\310\276\2769#<\222\314\272>\364\217\345\275$\333\034>\314*9\275\304n\037=\261\214\201=\'9\352\276\314\310\r\277p4\037>%\216\362\276`w6\276f\037\343\276\177`\'>\340\202V\276\373~T\277H\357\007\277=r\323\276\226\203\231\276\016C-\277\335,7\277\371\320\251>_\240\204=F\362\274>dY\007>Kp<;.\255\024\276\366Vd>g\274i>\313\377\021=\235\215\253\276\003\341\324\275e #\277s\016\233\276\224\254\036?\356\254\306\276|4\037>\rj\350>\227Q\251\276\240\254\322\276\004\215\315<\327\321\300\276\355A\310\275\270\212\023\277\332\353\000\276}\255\365\275\357\330\235\276\354~\227\276\001\305G\276\270\256\363>A\275h\275\353\330\263\2765e\317\276)\354l>6\267\223\276x\352\"?8\237G\277\005\013\367>\007\205\246>\\\021\277\276\332\252\374\276\353\266\255\275\274e\000>b\200\325>*}\325=\3430\206\276K\021\201\274V\223\215\276<\213\003>\024\274\242\275J.K\277\225\2405?3\3521\276\230x\214\276\377Zt>\262\250\276>i\322{=G=H\277\370\355Y>C\'\231\2753/2>)W_>K\254.;E\245\316>o\276\n>\370\031#\276\246\0032\275\'@ \276+e\255=\266\312\n\277\311\250d>\377E\001\277a\215\005?^m~\276\300\361-\277\037\365\362\274^ \221=h)\021?U#\342\276\026\017\002?\375\022\006?\347/(\275>\2306>\337sp>\346\217\257\275d.1>\210\266\221\276\030\026\023?mj2\277\\+\227>\225\305\272\276\213\350\253>\0221\213>[\357^>\357I\007\277\217\242\273>\313\005\031=z\374/>3\277\315>\214z9>\261\3353?\375{\266\273*|\270=\324x\247\275\210C\327\275\351\353\205?\366\273\256\276\035X\r\276\007\251\002?\030\267\254\276\010\323\233=S\037\324>\027\244\306=\341\034*\275\351\373X\276\374\250\314\276\331kw>\253\355\034=s\013\363>VGl>r\337\232>uQ\367>\277\211k\275\003\023)>\276\357]=W\274\360;B\204\225>V\247\021?\3622\001>\312i|\276\235\232i\275\346\263=>\373I}\276\330\263\355\276\"_\330>\230qE?\001\225\223>\305\360\000>\304\026B>\311\313\260<\347\274\256\276z\025\034\2759(\242\275\302\304\276\276\321L_\277\314\254\332\276\334\001\234=\256+\014<\377-y\276\200\203\275\276~I\022>\373{\t?!\\\216=z3\263\276\'\350\356\276\235\240\013>\267o\277\275\233@\035>\020\350\366>Y\241\246>Ke\t>\305Z\020\276yB&>\331\274\020?\024\375\032\275\277\r\207\274\270\002\021?\037\346\354=\275$\237\275\336\201\336>7U?\277G4.\276\010\341z=&\267E?\223x&>i\314\007\277\0008\220\276\271\002c=\314. >\217h?\276\024s\360=\377\235\345\2765N>?\336j\312\276D\303J\276\214\222|=\212\2066\2769\360\266=:\273\363\276\317a\006\277\177\220\025?\241\004y>\026*\254\275\017\260\367\275\275\217\367\275_\276\274\2757F\033>\"S\001?\300\261\203>`\232\006\277r\256\345\275\004\035\006?d\234N>9\302\203\276(P\355=\221\215\253>X\354M\277\037F~>\231C0?\204\377b\276\271ju\276A\016\351\276\0107\257\276\315\003\312>M,\017\277,\337\321\275\335\360y\275l\027F?g\272D\276\261y\014\276U;\223>g\000\274>E\334\347>1\"\371>\035\330\315>p\336\226>\362\322\262\275\347i\204\275\203\017\325=\342\334\254\274\366Tf\276` p\277\310\273\227>W\242\221\276\322\332A\276\300\003\205>0\200\255\275\344B\037\2763\217\222>\336\255\220>\376\350\257>_\244\204=V{e\276\003\334\314\276\255>5\2770J\032\2779\342\251>\020\260U?\255\\\233=\204\217|>>;\335>\226\375\361>B\221B\276\227q\037?\\8/\2763\357\373\276\343\023\001\276\233\266\373\276\001PA\277-]\324\275\035\270\212\2764\177W>on.\277b\264\214=^\371\345>\202\371\200>\271\304k\275\225!v\276\225\227\024>\017\345\231\276\201p\350>x(^\276\307\336\371\2740\"\371\2763\321I>v\361\315\275\323\217\324\276!.\t\277\224\t\355=\276\334\000\277\2776r\275\322/\374\275\006B\002=\311(\214>G\262\352>\032C\235>j$g>\327\276\263=\301\034p>V\364\035=\352h\367\276\247f\320\276\276\202@\277m\003\356>\311.\001?\203\332\203\276\213\036\030<\3144$?<F\304>\327\000D\277{29\277\2400\263=\360\330,\276}\177f\276\363I\355=\267\246\222\275RQc\276j\254&\274r6\342>\265\225\004\276o\350\275\276\303{\245>epm\276KL\222=\022g\"\277h&\355=\271\001\365\275p\370\256>\326\326\022<>O\363\275=>\377=\375\005a\276U\257\362>\275\0336?\356\256\277=\250\365\027?\224\224\242=\3078\033?38\367\276\252\262a\276\310+\232>\022\243\302>Hc\271\276MM\303>\366\354\264=\316?\214\275\204\037\032?bnC\277\357Q\200>\271\234\003>\336\2079>\3768\003\276\177\252\325>s/\257\276\213Zv\276K\240\262>\027\205\270>F\342\312\276\354\230%>7\207\265\275l\311\025\274>#\251>AvP>$\246\036>k8g\277\357\247Y\275\030\272\214>\n)\362>\245\016v>\347\274\223\274\251\177\r?\273\263\014?\272\033\366>f\265\253>\023\354\330=\000\305A\276u3s>\361\013\240\276\336\325C\275qQ\331\274$\356\251=\352\317\306>+\223\031=\242 \337\275\206\300\034\275A\357\254>n\322~\276Tdf:w\342\211\276\234\376\355=,3\313\275\017\n`=\003Fa\277\313+T=\225m >\345<\201>Me\223\2763\260m\276\t\341\001\277\024\223\265\274p\217g>\252\240\207\275t&K\277\247*\317\276+.\312>\001#\217>\013\3170>\275\253\301\276\276}@\277\330c\026\276\024\305\234=\370T\200?\364\262\340>v+\022>$\266\265>\275h\037\276\253wE\276\276\376n>\217F\225\276\300\204\317=\265h#?\345(\342>\355,\312>]\360\223>5\\\206>\210\031\225;\362\021\026\276\204\357\210\276q\n\230>h6\267>f\276\323\275\322k\347\276:\312\t=\0030\263=\276-D>\254\330\006\2770\363\'>\0247\224?(\333/\274xa\314\2741\210A\276$\231\024\277\252\310\200\276\3579r\275bB\212\276\2612\305>\341\204$\277\253\213\266>\263\335\271=\361\324\200=e\246\203>\260\256\222\276\3230\026\276\357\037J\275x\321\355>not\275\0328\010?\234\001\212\276\367)\370\276\334\272\212>~\350\315\2762\351\231\276\017\034\037\276\2311\345\276a\350\005\276\243\341\025\276\365[\337>I\002\360<]\241\253\276\341:\361>\202\036h>\n\364\246\276$p\235>\030tA\277\224\344\006>{\321\221\276\020\205\243>f\030!<[\316\312=\225\255l?\312CQ>\367\342\323>\327j\020?z\301\200\276\273{\301\275\365\375\277\276\035`\232\276\233\253\324\276\274\366X\276\242\201\337>\250\014s>}\350\343\276\025R\230>8\312R?\022\376\332\276[\"\206<_\201\177><e\227\274\374\311\201>\3049\211=\322\272 \277\210\365\226\276\245.\327>\364\203\225\276\005\373\241>\252r\234>\360\361\341=\020z\310>\314\356\371\276\350\332L\276\361\013\264=\204d\370\276\037r\022?\326\201\341\276\275\251\013?\244\005\211>\010M\"<\037x\233>>\351E\277\215\357\017\277\272$%>\202\034x\276\256\200\247\276\205\330\020=\355\236\030\276u)\221=R\014\003?\361a\351>\212\376U=`\361\327>\240\222(>\322\177\331\275F\345~;\225Q\357\275w\324p\276\005\307;\277\305\264\376=X\311\201\276\032\177g\277\256\217\016>b\260\006\275k\314.\275R\337\271>\002b2>\315\350\266>O\321=\276\265%#\274.\031\005>P\236\306>\314J\313>{9\037?e\330\265;L\302Z=`eC?ne\251<\"[\357\274H\314\255>[\311D\277\234\231*=\322>\305\276sL%\276\230\027\217=\332=r\276P2W\275\242b\003\277\237F\335\276\301\266T?!\017\276>\010\330\t\276G\356j>e\2665\276]\t\215\276\346\233\333>\006\347\037\276\364\276\275=\227f)\276^P[\275\003h|\275\337g1?\315\363\326\276<\234\207\276t\252\007?\333\230U>\010A\244>\210\316V\276\324\233\210\276\315-\234\276<\333\320>@Y\363\276\216\2445\276V\255\022\276\300\360\t=\233u\201\277\034\006\267=\232\245\013\276\340\267\315>\335\3405\276 \250\346=1\206\003\2772\263\231\276\335\t\356=\214\017;\276\255U\220=\025\213q>\333\337w\276\335=7\277\354\252\033?2y\375\273M\323u>\367\311\203>\010\347\005?\031\024\340>\360\344\316\275\200\363\025\277u\330m<\350\251\364=\312,\322\274\247\261)\276\215Q\306=\216\362D\276W\022\224\276\354\322\n>?\343\275;\223A;\276\307m\376>\010\244\250\276\374?\245?\344P}\276\031\227^>,\327\213\276\021\304Z?\357\234t\275FZg=\367\016\000>\244\274\334\275\002)C>\270\320\231\276^\220\354=\347!\311\276\253\277\300\276C<D\276\0309\001\274\362\326\021\2776\271\202\276r\302,\277\235\322\322>\277\343\206>\373k\272\276l\374A?\346Q!\276\370N8>\314\250\340\276\007\323\373\275\341\324\346\275\rX\343>\351\207\264=\\\205\364<8\317\323>\"\372\260>\2608\263\275\235\206q?\'\372\'=\032\202\016>Z\301\263\276I\353\335\274Nc`>\210\250\"\276.j\363\276;\372\013>R\376\337\276\232:)>\tN\321>q\303\003?+\3625>\210\242l\276\363\241\355>\304\353:>\304+#\274\307te\276W\314I\273J\202\325\276\237R\210\276RW\246>\243\205F>H\225\325=\245x\267:\341l\364\275\2368J>\360\356F\276\016os\276\017\243\224\275\250r\366\276\272\371\207>\213\007\226\276\306V\252>\263\364X\277l\274;\276\227\201\237\276\205\020\246>^)\255>\341\032\315>0\016d>\366\376\271\276^\332:\277\021 F?Z\0315=\210p\014>\232O\376\276=\250\232>A\327\010\276\224\344\331=g\333#>\355`\363\2752V\237>QGT>\014\322b\276\317\221/\277\230\265\270>\031s\005\275\234za\276$\317\037\276\210\346t>\266\265p>\2234\346>\275M\222\276\333f\211>\377\361g=R\320w>6\234~>.\232\300\276\235\356\337\275`\000\334\276\324^\210>S\265\010\277%B4\273c\245\266=\026\316F?\3059\016>\024\030\344>\352!*\274$\277)\277\3116\242\275%\254\232>w&\t\277\362\361\257>m5\202>\003\350\024\277\223\372\325>\323<\365\276\300\200\372\275\3407$\277\260\253\374\276e\370\242>\356\301G\275\215\233g\276\223\007\264=\310\331\216=\017>\021>\324\025\217={\361\345=\006\356_>m\013\025\277-\207\250>.\255\215\275\016x\220\276\032\262\253\276\177\373a?\226\275\034>\033f\330\276\270\022\n\277"
      }
    }
  }
}
node {
  name: "separable_conv2d_4/separable_conv2d/ReadVariableOp"
  op: "Identity"
  input: "separable_conv2d_4/depthwise_kernel"
  attr {
    key: "T"
    value {
      type: DT_FLOAT
    }
  }
}
node {
  name: "separable_conv2d_4/separable_conv2d/ReadVariableOp_1"
  op: "Identity"
  input: "separable_conv2d_4/pointwise_kernel"
  attr {
    key: "T"
    value {
      type: DT_FLOAT
    }
  }
}
node {
  name: "separable_conv2d_4/separable_conv2d/depthwise"
  op: "DepthwiseConv2dNative"
  input: "activation_4/Relu"
  input: "separable_conv2d_4/separable_conv2d/ReadVariableOp"
  attr {
    key: "T"
    value {
      type: DT_FLOAT
    }
  }
  attr {
    key: "data_format"
    value {
      s: "NHWC"
    }
  }
  attr {
    key: "dilations"
    value {
      list {
        i: 1
        i: 1
        i: 1
        i: 1
      }
    }
  }
  attr {
    key: "padding"
    value {
      s: "SAME"
    }
  }
  attr {
    key: "strides"
    value {
      list {
        i: 1
        i: 1
        i: 1
        i: 1
      }
    }
  }
}
node {
  name: "separable_conv2d_4/separable_conv2d"
  op: "Conv2D"
  input: "separable_conv2d_4/separable_conv2d/depthwise"
  input: "separable_conv2d_4/separable_conv2d/ReadVariableOp_1"
  attr {
    key: "T"
    value {
      type: DT_FLOAT
    }
  }
  attr {
    key: "data_format"
    value {
      s: "NHWC"
    }
  }
  attr {
    key: "dilations"
    value {
      list {
        i: 1
        i: 1
        i: 1
        i: 1
      }
    }
  }
  attr {
    key: "explicit_paddings"
    value {
      list {
      }
    }
  }
  attr {
    key: "padding"
    value {
      s: "VALID"
    }
  }
  attr {
    key: "strides"
    value {
      list {
        i: 1
        i: 1
        i: 1
        i: 1
      }
    }
  }
  attr {
    key: "use_cudnn_on_gpu"
    value {
      b: true
    }
  }
}
node {
  name: "batch_normalization_8/gamma"
  op: "Const"
  attr {
    key: "dtype"
    value {
      type: DT_FLOAT
    }
  }
  attr {
    key: "value"
    value {
      tensor {
        dtype: DT_FLOAT
        tensor_shape {
          dim {
            size: 32
          }
        }
        tensor_content: "G\\\321?\227z\332?\344\035\224?\274Q\271?Rk\212?\350\346\307?^\304\235?\246\203\273?\272*\232?+\231\214?\264U\236?\021.\227?S\004\225?F\030\275?\344\264\220?T\237\236?\371\315\271?\301\026\257?\325%\220?qG\261?\311\277\203?l\312\306?\253\032\270?\272L\254?\272\234\315?.\263\261?\006\204\271?t\217\234?\237\274\270?m\271\251?:{\244?\3457\241?"
      }
    }
  }
}
node {
  name: "batch_normalization_8/beta"
  op: "Const"
  attr {
    key: "dtype"
    value {
      type: DT_FLOAT
    }
  }
  attr {
    key: "value"
    value {
      tensor {
        dtype: DT_FLOAT
        tensor_shape {
          dim {
            size: 32
          }
        }
        tensor_content: "S\230\360\276\032\343\247\276zF\262=u\005\251\276X\020\013\277(@f=\330\201\200>Mj4\277O\320\230>\3558Q\277\007\347\014\275\327\310\"\277\374\031E>ks\206>\006f\343\276\002\002X\277\355\272 \277pO\225\276\251%\260=e\241\267\275\334\000\"\276\340\316\270\274--\224\276\213\030\275\276\372SA>\233\254\242< \014c\276\344\017\013\276\327eq=\242\222\223\2753\035\022\277\312\376{>"
      }
    }
  }
}
node {
  name: "batch_normalization_8/moving_mean"
  op: "Const"
  attr {
    key: "dtype"
    value {
      type: DT_FLOAT
    }
  }
  attr {
    key: "value"
    value {
      tensor {
        dtype: DT_FLOAT
        tensor_shape {
          dim {
            size: 32
          }
        }
        tensor_content: "$\367\031\300\304\305>\300\013h\002>7GF\300u@\363\277\347\243`\276\353\2147\277\370#R\277\357\354\244\277\362IZ>\373[\226?f\366s@w\255\224\277\022F\265\277\367\206 @\350\257\007?G\300\336\277@\245\341\277J\230h\277-\236\216>\"\305=?\334mE@Z5b\2756Qz?\2322\323?\223\016\302?Rl\246\277JL\235?#@\252\275^}\222>=\324\005\300\225\321\227\300"
      }
    }
  }
}
node {
  name: "batch_normalization_8/moving_variance"
  op: "Const"
  attr {
    key: "dtype"
    value {
      type: DT_FLOAT
    }
  }
  attr {
    key: "value"
    value {
      tensor {
        dtype: DT_FLOAT
        tensor_shape {
          dim {
            size: 32
          }
        }
        tensor_content: "\373Q\005A*h\264@\013\177\217@\312\272\007A\1778\214@\3665#AT\356v@\247%\006A\\$\335@\346d\257@\321V\344@\013\"\223@\307\177|@4\243\024A\036~\223@\305\331\333@\"0\rA \324\204@\366_\214@\234\305\323@\377\323J@\335\363\002A\200\355\323@\205\353\372@\"\267\316@\363\014h@\232\r\320@\233\320\352@\374U\030AK\322\203@\310\222\344@\344\377s@"
      }
    }
  }
}
node {
  name: "batch_normalization_8/ReadVariableOp_6"
  op: "Identity"
  input: "batch_normalization_8/gamma"
  attr {
    key: "T"
    value {
      type: DT_FLOAT
    }
  }
}
node {
  name: "batch_normalization_8/ReadVariableOp_7"
  op: "Identity"
  input: "batch_normalization_8/beta"
  attr {
    key: "T"
    value {
      type: DT_FLOAT
    }
  }
}
node {
  name: "batch_normalization_8/FusedBatchNorm_1/ReadVariableOp"
  op: "Identity"
  input: "batch_normalization_8/moving_mean"
  attr {
    key: "T"
    value {
      type: DT_FLOAT
    }
  }
}
node {
  name: "batch_normalization_8/FusedBatchNorm_1/ReadVariableOp_1"
  op: "Identity"
  input: "batch_normalization_8/moving_variance"
  attr {
    key: "T"
    value {
      type: DT_FLOAT
    }
  }
}
node {
  name: "batch_normalization_8/FusedBatchNorm_1"
  op: "FusedBatchNorm"
  input: "separable_conv2d_4/separable_conv2d"
  input: "batch_normalization_8/ReadVariableOp_6"
  input: "batch_normalization_8/ReadVariableOp_7"
  input: "batch_normalization_8/FusedBatchNorm_1/ReadVariableOp"
  input: "batch_normalization_8/FusedBatchNorm_1/ReadVariableOp_1"
  attr {
    key: "T"
    value {
      type: DT_FLOAT
    }
  }
  attr {
    key: "data_format"
    value {
      s: "NHWC"
    }
  }
  attr {
    key: "epsilon"
    value {
      f: 0.0010000000474974513
    }
  }
  attr {
    key: "is_training"
    value {
      b: false
    }
  }
}
node {
  name: "conv2d_4/kernel"
  op: "Const"
  attr {
    key: "dtype"
    value {
      type: DT_FLOAT
    }
  }
  attr {
    key: "value"
    value {
      tensor {
        dtype: DT_FLOAT
        tensor_shape {
          dim {
            size: 1
          }
          dim {
            size: 1
          }
          dim {
            size: 16
          }
          dim {
            size: 32
          }
        }
        tensor_content: "N\200 >\035\371\273=l\003\234\276\327P\255\276\342\260M?\243\333\024=mp\366>\315^\224=j\372:?\302r\331\276q<n>\250\351\035\276>\334s>Wh\201=\376\277\003?^\211\271=\233{\237\274\325\n\240\276\013G:=3\240\220\275\342F\267\276\247\206\312=\346 \371\276:q\300\276\372\332\260>\025rD\276\323V\313\276%j\257\276M\023\377\276\321\231\301<\034km>\343\213\275>\036\0060\277@\201\014<\356\334V>\370\364T\276Q\214\020=m\035\001?\222i\270>\006\332)\277<+\345\276v\350\207>\242v/\276\317@\242>g\3331=\364\256\251>\261\317\271\275\036\343.\2774\340\363>\242&\330>G\206\030>^\034\022=\302\377G\276\350\331\321=\221k\221\275\263\370\003\277\021\n\340\276\246\014{\276\034\321\321=\350\\L\276\352\005\014\276\243\222\026\277\013\362K>\322Xl>W\243\036\276\343W\355\275O\273\214>\2013\020<\342D\344>@\027k\276\315A\"?\341/a\275\347\344\276=\204\017:\275*\205\361>\236\262\333\276\305/\305\276n\237\247\275\022p\356>\341\214\351\274}N&>\004o\276>n\004\026>\253\270N\274\323\2768\277b\r\360;\037\"\217\273\246\002}\274\013k*>\337:\217=/J\235>\234g*\277\223\211r\276\001A@\275\346Y\325><\362\303\275\303b\036\276\366\002\033\276\355{\204>\226\303\024\276Z\305\361\276\034\231)\277\354\371\323=\322\'!>\022\004z>\233*1\276\277\210\303\276\265\024\374>!\322$\277x\037\227?\317\345\215\276\221g\027\277\3656\212=#\014\021?}T\r> 9\267\276\026e\267>M4=\277\373$\257>\204\265Z>\371\024\270\276\255e9\276\035+L\274\276\343\253>\032#\271>\277\332\r?V\240\021?7\352\265\276\314\236\230>b/\256=\\HL\276D\310\026=\006PB?\351\244V\2755\255\226\276\222\376\211>~g\245>W\267\377\276\374\006\227\276i,2\276\252\005\322\2752\225\003\277\222\372\376>W\256o>\232\007\363\276?\230\326=\311\335_\273\3567\260=\005\215P\276;\017%=r\242\302\276\327\341n>*z*\275\241\264\345>D0/\277\222\035\326=?<\272\276\264\231\230\276\373\004\323\275HX\272\273\270\370\225\275\307\016\025\275\355\020\361>\234\311\030>\200\357\330=\000\026\367\276\200\314\231=#h\227>2\362C?:\200\275\276b8\246\273\356\255\206>\361y\224\276eP\362\274\310\t\245\276B\205c\276b\026\026=\366Q\031\274\267\215\255\276\347\240\026>R\320w\275\337\027\257\276D\2314>f\225T\276\r\245\226<:#Z\275$\203\371>\214\317%\276\251\241x>\352\353\022?\2740+>\327C\027\277\216\360\351\276\026\352\341>\353S\270>\246\374\003?\360%\000\277\202we\276\266\026i\276\035\276\201\276&@Y=\333\317\031\277l\301\360\276\255\246q\276Q\177\020<\264\223\326>A\013\210=U\312\021\276\037`\004?\2506\236>\023J\335\276H;b\277\024dM\277PJ#\277\016\\\001\277\231\300\202\277\242DR=d\301\000\277\353\236\244\275=xE\276\301\316\232=\301\363_\2761-\330;^\2322?M/W\277B\232\373>\224\357\026<\200f\330\275\253\260!>\232\376\035\273\246[\317>#\3115\277\037y\305\276W;\236\276:1\265\276\266\352\235\276&\271Y\275#\317\270>X\361%>|\004$\277\236\257\334<+|\035?2*\002?S\007\350=f\206\311\276\337\344O=\324\345H?r\362\004\276\t\221\341<\206L<\2760\232\222\276\357\027\313>\267p\272\275A\265\206\275(n\204>\0039\304=\221\223G\276\2469\214>\251\205\313\275S\312\355=&b\362=\341\213\324\275G\373\267>\\m*>A\275\002?\004a\276\276k7\240\276Qa\030?E\306\n>\245Ib>,\366\000?\264\020\006\277zde=\035\344\322>T* <\353$\020\277\252\223:\276\201\254s\276{\3068\275^\307}\275 \344\226\277\342\037e\276;\034#\277\031\223o\276\272{\033\276\273g\027>\360^e?\236\341\256>\021*|>\000X\024>F\324\034\274I\210\324>E\215*>\356S\220>\207\334\007\277\353\245-\276XG0>\366\'\217\2768\225\277=\317g\310>\201b\231==\320\261>\3730\313=\004\365G>ze\314>-JJ\276\337\254\241\276\376\026\355\275\362\330\332\276\246\314\276\275\365\347\033\277p\302F\275%\032\262>\243\313\233\275;\327\356=\221\006\313\276S\252\000\277;\343)\276%V\210>\224\212\217>\036\033K\277\255\001f\277\037f#\277\264\307.\277\\n\277;\251[F\276J\'Q\275Z\277\214\275\305zS>K\346\215\276\263S=>\230\222\375=\336e\004>\254\221\221=\337I\210\276.n\207\276\213\243\221>5\n\267>\037\217\305>\335(\265\276\201\244k>\275\346\201\276/+\246=\035\312\364>\027|8>\020>\033\277\177\211d=\022J\324>\351z\255\275y\025K>\334\276\333>+\204\010\276\361\177x\274\330w\373;\330v\346>-\252\021?V#\217\276cq\311\275\243\307\252\276\036\r\373>_\320\245>\355$\300>\253\210\334\276F?U?\035\n\210\277%\357\002?|\2642>\340\377\367>7\200\005\276\203/\277\2763\335\204\277\323\037\235\276#\347\013>\212\013\037\277\345V\375\275\272\221m\276\226A\217=Vw>\277\250\375\007\277\2203\256\276\336I\370>\335H\262\276\333\300^>>\010\007?\026\274\033\276\301L$?\0251*\277\324\362\304>\273\022\252\276d\364\255\274\031\353\276\275\016_\374\276\226rX\275\311\354\345\276\350x~\276\215T\217\275\265\375\321>D\305{\275D\351\007?\277U\301\275\2728\214=v\267\006?\205\342\037>4{\226\276\270\3375\276w!M\275\370\234a\276\346\3334\275\261;\r\277\211\"\372\275\245x\211\276f[\241\274C\034\003\277\365\373+\277\374\243\032\2765\304\333>\202\302e\276\035\023\263>k\315\033? \274\017?\273\323\026\277W<\217\276\017U&\2772L\">\202\227\216=\324\320\\>cQ5\277\247\371\200>\212}\007\277\253\022\323>\320%D\276\226\004\353=<\220\022\276<[*\276w\207$\277\023\030\337\276\304\005\226\276\261\325\014\277\276\007\305\276:c\207\276\224\313A>\333\374Q\277#!\266\276\216g\341\276\364\2360?C\307\206\276>\212i>\037s\014?\235r\262<;w|\276\354\001\227<YV\022\277H\306\250\275\366$\322>~\367\035?\311\370\260\276\207\261*=\344\272\363=\247\303\014\277b\251\325\276\240\305\001<9/\364\275\252\033\232\275\005\324\n\276\222\230C>\\19\276\320:S\273\366\\\322>\275!\335=\322w$<=\215\205\276z\246\213\276=4\311\2764%\313\275\221\223\251<P\212\272\276\027(\304\276\033\274\275\276\235\036\323>\210\207\245=\363\337\013=\270Q\356=4Q\t\2767\270D>\302\026\376>\270\236\026\277\332\021\006>S\021\330>\022[\t?\262\274!\277\213\351\027\276\365O\260>\2563\253>\270t\227>\010\205S?\350^\372\275-\270~?a\226\014?\'Z\305\276\320\205\212\276\307\364\235>\034\346\347>\215|\254\2766@\316>\232W\241\276\216\216\215=\322\016\010\277\240\350\356>%\370y\276\270:&\276\"f!?\231{\274>"
      }
    }
  }
}
node {
  name: "conv2d_4/convolution/ReadVariableOp"
  op: "Identity"
  input: "conv2d_4/kernel"
  attr {
    key: "T"
    value {
      type: DT_FLOAT
    }
  }
}
node {
  name: "conv2d_4/convolution"
  op: "Conv2D"
  input: "add_1/add"
  input: "conv2d_4/convolution/ReadVariableOp"
  attr {
    key: "T"
    value {
      type: DT_FLOAT
    }
  }
  attr {
    key: "data_format"
    value {
      s: "NHWC"
    }
  }
  attr {
    key: "dilations"
    value {
      list {
        i: 1
        i: 1
        i: 1
        i: 1
      }
    }
  }
  attr {
    key: "explicit_paddings"
    value {
      list {
      }
    }
  }
  attr {
    key: "padding"
    value {
      s: "SAME"
    }
  }
  attr {
    key: "strides"
    value {
      list {
        i: 1
        i: 2
        i: 2
        i: 1
      }
    }
  }
  attr {
    key: "use_cudnn_on_gpu"
    value {
      b: true
    }
  }
}
node {
  name: "max_pooling2d_2/MaxPool"
  op: "MaxPool"
  input: "batch_normalization_8/FusedBatchNorm_1"
  attr {
    key: "T"
    value {
      type: DT_FLOAT
    }
  }
  attr {
    key: "data_format"
    value {
      s: "NHWC"
    }
  }
  attr {
    key: "ksize"
    value {
      list {
        i: 1
        i: 3
        i: 3
        i: 1
      }
    }
  }
  attr {
    key: "padding"
    value {
      s: "SAME"
    }
  }
  attr {
    key: "strides"
    value {
      list {
        i: 1
        i: 2
        i: 2
        i: 1
      }
    }
  }
}
node {
  name: "batch_normalization_6/gamma"
  op: "Const"
  attr {
    key: "dtype"
    value {
      type: DT_FLOAT
    }
  }
  attr {
    key: "value"
    value {
      tensor {
        dtype: DT_FLOAT
        tensor_shape {
          dim {
            size: 32
          }
        }
        tensor_content: "\372\241(?\261H\n>\221rd?6\246\005?\231\352\024?&\266L?\027$\367>o\302/?\005\225l?U\2172?\335\"\366>\244\353\227>\203\260\306>\000J\022?\375\245\007?\036>3?\302\221\272>u\261\025?\364\0066?\332@-?i\221#?d\337\230>W\316\233>i\276\033?\007\216\325>\342\357??u\3108>\340\313\344>\315\254\006?\007\002\365>\373\376e?2\317\324>"
      }
    }
  }
}
node {
  name: "batch_normalization_6/beta"
  op: "Const"
  attr {
    key: "dtype"
    value {
      type: DT_FLOAT
    }
  }
  attr {
    key: "value"
    value {
      tensor {
        dtype: DT_FLOAT
        tensor_shape {
          dim {
            size: 32
          }
        }
        tensor_content: "S\230\360\276/\343\247\276RF\262=`\005\251\276i\020\013\277tBf=\312\201\200>Ij4\277o\320\230>/9Q\277K\345\014\275\350\310\"\277\350\030E>Cs\206>\315e\343\276\016\002X\277P\273 \2776N\225\276\324%\260=\025\242\267\275\n\002\"\276p\322\270\274\202,\224\276v\030\275\276\240TA>\357\252\242<m\013c\276\306\017\013\276\204dq=\250\221\223\2754\035\022\277\227\376{>"
      }
    }
  }
}
node {
  name: "batch_normalization_6/moving_mean"
  op: "Const"
  attr {
    key: "dtype"
    value {
      type: DT_FLOAT
    }
  }
  attr {
    key: "value"
    value {
      tensor {
        dtype: DT_FLOAT
        tensor_shape {
          dim {
            size: 32
          }
        }
        tensor_content: "8}x\300\235\376\365=[\356\016\275\342LD\277q\030\307>\371\036!\277\257\007\017@y}\315\277\372g\023@exP\300uQG\300r\244G?+\353\036\276\r\260\323?\024R\246?\256\305G\300]WA@\305\326;@G.A\277\267\000\336\277\355a\261\277\206\232\355\277\322\002.\277o\225\030\300\364\2509\300\007m1\300\006\377\302\277tb^\276\261\313\304\277\202\357\255\277\335\236o@\340\272\330?"
      }
    }
  }
}
node {
  name: "batch_normalization_6/moving_variance"
  op: "Const"
  attr {
    key: "dtype"
    value {
      type: DT_FLOAT
    }
  }
  attr {
    key: "value"
    value {
      tensor {
        dtype: DT_FLOAT
        tensor_shape {
          dim {
            size: 32
          }
        }
        tensor_content: "5\302\205A\350\034\272@7m\013A\027S\027AhL\373@\212o\321@\021p1A\364\274\310@3\226\333@\200\362\211A7\370YA\254`\336@\255\376\032A\r\330vAW\004\030A\274)\246A\360]7A\252:\306AN\377\'AM\013VA+p\351@\022\277\033A>\344\255@F\265\034A\327D\243A\371J,A7\202xA\247\031GA\004\200\013A\3276\215@Ue\235A\0216#A"
      }
    }
  }
}
node {
  name: "batch_normalization_6/ReadVariableOp_6"
  op: "Identity"
  input: "batch_normalization_6/gamma"
  attr {
    key: "T"
    value {
      type: DT_FLOAT
    }
  }
}
node {
  name: "batch_normalization_6/ReadVariableOp_7"
  op: "Identity"
  input: "batch_normalization_6/beta"
  attr {
    key: "T"
    value {
      type: DT_FLOAT
    }
  }
}
node {
  name: "batch_normalization_6/FusedBatchNorm_1/ReadVariableOp"
  op: "Identity"
  input: "batch_normalization_6/moving_mean"
  attr {
    key: "T"
    value {
      type: DT_FLOAT
    }
  }
}
node {
  name: "batch_normalization_6/FusedBatchNorm_1/ReadVariableOp_1"
  op: "Identity"
  input: "batch_normalization_6/moving_variance"
  attr {
    key: "T"
    value {
      type: DT_FLOAT
    }
  }
}
node {
  name: "batch_normalization_6/FusedBatchNorm_1"
  op: "FusedBatchNorm"
  input: "conv2d_4/convolution"
  input: "batch_normalization_6/ReadVariableOp_6"
  input: "batch_normalization_6/ReadVariableOp_7"
  input: "batch_normalization_6/FusedBatchNorm_1/ReadVariableOp"
  input: "batch_normalization_6/FusedBatchNorm_1/ReadVariableOp_1"
  attr {
    key: "T"
    value {
      type: DT_FLOAT
    }
  }
  attr {
    key: "data_format"
    value {
      s: "NHWC"
    }
  }
  attr {
    key: "epsilon"
    value {
      f: 0.0010000000474974513
    }
  }
  attr {
    key: "is_training"
    value {
      b: false
    }
  }
}
node {
  name: "add_2/add"
  op: "Add"
  input: "max_pooling2d_2/MaxPool"
  input: "batch_normalization_6/FusedBatchNorm_1"
  attr {
    key: "T"
    value {
      type: DT_FLOAT
    }
  }
}
node {
  name: "separable_conv2d_5/depthwise_kernel"
  op: "Const"
  attr {
    key: "dtype"
    value {
      type: DT_FLOAT
    }
  }
  attr {
    key: "value"
    value {
      tensor {
        dtype: DT_FLOAT
        tensor_shape {
          dim {
            size: 3
          }
          dim {
            size: 3
          }
          dim {
            size: 32
          }
          dim {
            size: 1
          }
        }
        tensor_content: "\214\nq\276NS\257\275\3533\250>\357\377K<\372\262\302\276\001\335U\276\356V\203\276\021[%?\201+\357\2736\331\212>\266\017\312\276\273\031\005\276\252\316\206<}\354k>\363\231S\276\366\202\333>#\0208\275^\3476\275\220\221\266=e\tH\273k\276\032>\253\021\340\276%\322\251\276\346\312I\276\231\022^>A\310\302>\330i\004\276\242\010\276>\253=\027\277\344\024\262\275\0218\005\277v\022\242\274\235}.\276\232*l>\237\274\341\275\370\017\355=\\\377\306\276\301\332g=R+\332\275}\345\351>\r\226\332>\317,\365>B3\342\276\326\257\277\275$s3>9\220)?\322\265\014>\'\306\374>\311\255\247=)\315\257>\312\327\326\276;\344-\276\202\235\367\275\227!\023\276\232\201\r\277\371r\025>\242\'\247>1,/>/!\340<J\352\245>\333\306\007\276\034\264\371\276+\331\003\276Pg\344\276jb1>0\006\332\275l\330.\276\322\203\261> \226\257>\370t\340>\002\027\314=\234f\016\277[|\270>\377g\032?C\262\326\276\253\303]\276i\027\265>5\236\223=\030\245\241>\267`\311\275\025V_>\002\240\232>\246\013\300\276\270\353F>&\t\316\276\370?A=Z\305\223\276\372c\335>\223\374f>e2s>\375UV=\310k\206>W\226\251=\244\013\205\276C|m>\034A\243\276\010\305-\277\227\330j>$V\245=\200\203\241>\346q\222\276\317\0212\277\237\311\023\276\233}\n?\272\337\222\276:+M>P\221\215\2762b\353\276\274\340\035>\031\343@=jL\314\2761\204\204=\303\263\246>\226]\377<6\3261\276\372\203\346\275{\035\020\276\222O\036=\356\316\314\275\303\324\207\276\203\262\356\273T3/=A\007\246\276\354\264^>\r\025\327\276&\001\213\275\255\235f\276\033%(\276\220.0<)\235\211>\214\270n\276\366v\264\276\335\344\354\276\r\t\307\275R\361\263\276aH\346>KC\001>\335\273h>\030P\355\275\351\260\332\276i\313\240>t\234\313>5{*\276\327\224\357>\223\261%?\026.\026?\305(\014\277\274\241\034\277\261\303\317\276v\017\252>\331\356\212\274\326\267H=\274\276\003\277\252\363q\275\364\306f\276\206.\345\276e\237\227\275\257\177\240\276F\277A>\224\215_\276F\230\344>\365\001\234\276\334d7\276\227\214\013\275\326\354\354\275\275\221\345>d\0318\276\344\244\334\276\'\210\353>\375\261\224>S\275\204\276hB\264\276a\245\331>\272u\025\273\356\205\253>\367\324<\273\347\203\003?\254<\324>\216\244\342\275A\227v=$\303\007\277S8\346>L\007J\275\267Gy>\277L\231\275\252k\255>\343iO=\315\202\370\2764w\273\275\013\327\240\276\336\205\222>\316\266\246\275k\016\276\276M\275\331>7\341\312\275?\014 >\025:\226\274>\310\313\276H\020\350>\033\326\340\2759\252\010\277\256^\r\276\003\031\010=Y_\306\274\000?_\275\030\276\352\275\321\351\342\276\037\036\t\277\264\356z=/p\024\275\375\305_>\373ht\274\220r\336=\0105K\276\030\023\330>p\343\306\276\260\301\230=t\244\001\277\202-@\276\241%\205=\313\014\003\275L\272,>\003\301\261\276\300\341\311\274\314\243\335>\244\300\031?\374K\201\276\0376,\277~\004\215\275\274\210\336=<{\206>\004\305\350=\340V\273\276Cr\007\276I\206\333>\000#=\276^\371\002\275\262\\\321\276\343@\346\276I\250<\276\360\322\035>\000\371l>~\360&=\261x\037\277\220\317\253>\335?\001>\021}\t?:\251\372\276\354\2634\277\370\266\320\276y\023\013\277 N\303\276\212.\022?&w\246>|*\013\277\246\265\276\276\223_\023?$\255\346\276\032\204\277\276\271\371\030\277RI\026>crk>\225mw;\346OL\275\247m\036>3el\274\342\037\206>/\204*\276\352\210\370=\003A\330\276\361{#\275q)\001\276\321s\233>\360\260\200=:\010\025?\225\301\266\275\257*\251=\025\211\367>\314\326\221>5ZG\276\225\345\247\275\345\252\265\275D\273\205\276\315\265\204\276\375\271\267>\t\035`\275s\031\021\276\332\373\204\276"
      }
    }
  }
}
node {
  name: "separable_conv2d_5/pointwise_kernel"
  op: "Const"
  attr {
    key: "dtype"
    value {
      type: DT_FLOAT
    }
  }
  attr {
    key: "value"
    value {
      tensor {
        dtype: DT_FLOAT
        tensor_shape {
          dim {
            size: 1
          }
          dim {
            size: 1
          }
          dim {
            size: 32
          }
          dim {
            size: 64
          }
        }
